unsigned char ki_modell_tflite[] = {
  0x1c, 0x00, 0x00, 0x00, 0x54, 0x46, 0x4c, 0x33, 0x14, 0x00, 0x20, 0x00,
  0x1c, 0x00, 0x18, 0x00, 0x14, 0x00, 0x10, 0x00, 0x0c, 0x00, 0x00, 0x00,
  0x08, 0x00, 0x04, 0x00, 0x14, 0x00, 0x00, 0x00, 0x1c, 0x00, 0x00, 0x00,
  0x94, 0x00, 0x00, 0x00, 0xec, 0x00, 0x00, 0x00, 0x50, 0x28, 0x00, 0x00,
  0x60, 0x28, 0x00, 0x00, 0x10, 0x2f, 0x00, 0x00, 0x03, 0x00, 0x00, 0x00,
  0x01, 0x00, 0x00, 0x00, 0x10, 0x00, 0x00, 0x00, 0x00, 0x00, 0x0a, 0x00,
  0x10, 0x00, 0x0c, 0x00, 0x08, 0x00, 0x04, 0x00, 0x0a, 0x00, 0x00, 0x00,
  0x0c, 0x00, 0x00, 0x00, 0x1c, 0x00, 0x00, 0x00, 0x38, 0x00, 0x00, 0x00,
  0x0f, 0x00, 0x00, 0x00, 0x73, 0x65, 0x72, 0x76, 0x69, 0x6e, 0x67, 0x5f,
  0x64, 0x65, 0x66, 0x61, 0x75, 0x6c, 0x74, 0x00, 0x01, 0x00, 0x00, 0x00,
  0x04, 0x00, 0x00, 0x00, 0x94, 0xff, 0xff, 0xff, 0x0c, 0x00, 0x00, 0x00,
  0x04, 0x00, 0x00, 0x00, 0x07, 0x00, 0x00, 0x00, 0x64, 0x65, 0x6e, 0x73,
  0x65, 0x5f, 0x32, 0x00, 0x01, 0x00, 0x00, 0x00, 0x04, 0x00, 0x00, 0x00,
  0x9e, 0xd7, 0xff, 0xff, 0x04, 0x00, 0x00, 0x00, 0x0d, 0x00, 0x00, 0x00,
  0x66, 0x6c, 0x61, 0x74, 0x74, 0x65, 0x6e, 0x5f, 0x69, 0x6e, 0x70, 0x75,
  0x74, 0x00, 0x00, 0x00, 0x02, 0x00, 0x00, 0x00, 0x34, 0x00, 0x00, 0x00,
  0x04, 0x00, 0x00, 0x00, 0xdc, 0xff, 0xff, 0xff, 0x0f, 0x00, 0x00, 0x00,
  0x04, 0x00, 0x00, 0x00, 0x13, 0x00, 0x00, 0x00, 0x43, 0x4f, 0x4e, 0x56,
  0x45, 0x52, 0x53, 0x49, 0x4f, 0x4e, 0x5f, 0x4d, 0x45, 0x54, 0x41, 0x44,
  0x41, 0x54, 0x41, 0x00, 0x08, 0x00, 0x0c, 0x00, 0x08, 0x00, 0x04, 0x00,
  0x08, 0x00, 0x00, 0x00, 0x0e, 0x00, 0x00, 0x00, 0x04, 0x00, 0x00, 0x00,
  0x13, 0x00, 0x00, 0x00, 0x6d, 0x69, 0x6e, 0x5f, 0x72, 0x75, 0x6e, 0x74,
  0x69, 0x6d, 0x65, 0x5f, 0x76, 0x65, 0x72, 0x73, 0x69, 0x6f, 0x6e, 0x00,
  0x10, 0x00, 0x00, 0x00, 0x60, 0x27, 0x00, 0x00, 0x58, 0x27, 0x00, 0x00,
  0x38, 0x27, 0x00, 0x00, 0x18, 0x27, 0x00, 0x00, 0xf8, 0x26, 0x00, 0x00,
  0xe0, 0x26, 0x00, 0x00, 0x50, 0x01, 0x00, 0x00, 0x00, 0x01, 0x00, 0x00,
  0xb0, 0x00, 0x00, 0x00, 0xa8, 0x00, 0x00, 0x00, 0xa0, 0x00, 0x00, 0x00,
  0x98, 0x00, 0x00, 0x00, 0x90, 0x00, 0x00, 0x00, 0x88, 0x00, 0x00, 0x00,
  0x68, 0x00, 0x00, 0x00, 0x04, 0x00, 0x00, 0x00, 0x5a, 0xd8, 0xff, 0xff,
  0x04, 0x00, 0x00, 0x00, 0x54, 0x00, 0x00, 0x00, 0x0c, 0x00, 0x00, 0x00,
  0x08, 0x00, 0x0e, 0x00, 0x08, 0x00, 0x04, 0x00, 0x08, 0x00, 0x00, 0x00,
  0x10, 0x00, 0x00, 0x00, 0x24, 0x00, 0x00, 0x00, 0x00, 0x00, 0x06, 0x00,
  0x08, 0x00, 0x04, 0x00, 0x06, 0x00, 0x00, 0x00, 0x04, 0x00, 0x00, 0x00,
  0x00, 0x00, 0x00, 0x00, 0x00, 0x00, 0x0a, 0x00, 0x10, 0x00, 0x0c, 0x00,
  0x08, 0x00, 0x04, 0x00, 0x0a, 0x00, 0x00, 0x00, 0x02, 0x00, 0x00, 0x00,
  0x02, 0x00, 0x00, 0x00, 0x04, 0x00, 0x00, 0x00, 0x06, 0x00, 0x00, 0x00,
  0x32, 0x2e, 0x31, 0x35, 0x2e, 0x30, 0x00, 0x00, 0xba, 0xd8, 0xff, 0xff,
  0x04, 0x00, 0x00, 0x00, 0x10, 0x00, 0x00, 0x00, 0x31, 0x2e, 0x35, 0x2e,
  0x30, 0x00, 0x00, 0x00, 0x00, 0x00, 0x00, 0x00, 0x00, 0x00, 0x00, 0x00,
  0xcc, 0xd2, 0xff, 0xff, 0xd0, 0xd2, 0xff, 0xff, 0xd4, 0xd2, 0xff, 0xff,
  0xd8, 0xd2, 0xff, 0xff, 0xdc, 0xd2, 0xff, 0xff, 0xea, 0xd8, 0xff, 0xff,
  0x04, 0x00, 0x00, 0x00, 0x40, 0x00, 0x00, 0x00, 0x70, 0x58, 0xde, 0x3e,
  0xa7, 0x40, 0x68, 0x3f, 0xe3, 0xe1, 0x8b, 0x3c, 0xd4, 0x23, 0x67, 0xc0,
  0x7b, 0xd6, 0x14, 0x3f, 0x97, 0x3b, 0x89, 0xbf, 0x75, 0x4e, 0x6f, 0x3f,
  0xd4, 0x9d, 0xac, 0xbf, 0x97, 0xd4, 0x84, 0x3c, 0xed, 0xce, 0xc3, 0x3f,
  0xf2, 0xee, 0xb9, 0xbf, 0x86, 0xa2, 0xb1, 0x3f, 0xd9, 0x5b, 0x1a, 0xbf,
  0xe2, 0xac, 0xc1, 0xbf, 0x8f, 0xcd, 0x01, 0x3f, 0x1b, 0x1f, 0xa1, 0x3f,
  0x36, 0xd9, 0xff, 0xff, 0x04, 0x00, 0x00, 0x00, 0x40, 0x00, 0x00, 0x00,
  0x34, 0x12, 0x14, 0xbe, 0xb9, 0xcd, 0x1b, 0xbf, 0xd5, 0x38, 0x43, 0xbe,
  0xce, 0xfa, 0x0c, 0x3e, 0xe4, 0xc4, 0x17, 0xbf, 0x9f, 0x18, 0x5d, 0x3f,
  0xf6, 0xb1, 0x45, 0xbf, 0xb8, 0x4c, 0x7e, 0xbf, 0xc7, 0xdd, 0x93, 0x3f,
  0x6b, 0x5e, 0x35, 0x3f, 0x3b, 0x27, 0xdd, 0x3e, 0x28, 0x10, 0xac, 0x3f,
  0xc2, 0xdd, 0x52, 0x3f, 0x10, 0x2f, 0x8e, 0xbd, 0x44, 0xf9, 0xd8, 0x3e,
  0xf0, 0x0e, 0xb8, 0xbe, 0x82, 0xd9, 0xff, 0xff, 0x04, 0x00, 0x00, 0x00,
  0x80, 0x25, 0x00, 0x00, 0xbb, 0x2b, 0xc6, 0x3d, 0x45, 0x6d, 0x1b, 0xbd,
  0x1e, 0xd4, 0xa7, 0xbd, 0x5f, 0xbd, 0x7c, 0x3d, 0x4b, 0xb5, 0x69, 0x3c,
  0x0b, 0xc2, 0x2d, 0xbe, 0x3d, 0x72, 0x63, 0xbd, 0xbf, 0xee, 0x99, 0xbd,
  0x06, 0x53, 0x2e, 0x3e, 0x9b, 0xb2, 0xbb, 0xbd, 0x93, 0x30, 0x1d, 0xbc,
  0x41, 0xc6, 0x03, 0x3d, 0x09, 0x9d, 0x12, 0xbd, 0x5b, 0x8c, 0xe9, 0xbd,
  0x2a, 0xc9, 0x80, 0x3e, 0x82, 0x0c, 0xa9, 0xbd, 0x7f, 0x08, 0x21, 0xbd,
  0xdc, 0xd3, 0x07, 0xbd, 0xa4, 0x7e, 0xf1, 0xbd, 0x5e, 0xa5, 0x83, 0xbd,
  0xe0, 0xd9, 0x15, 0x3e, 0x07, 0x97, 0x42, 0xbd, 0xf1, 0xa1, 0x20, 0x3d,
  0x25, 0x4e, 0x7a, 0xbd, 0x17, 0xbd, 0x83, 0xbd, 0x5c, 0xbf, 0xce, 0xbd,
  0x03, 0x40, 0x00, 0x3e, 0xec, 0xdb, 0xf2, 0xbb, 0x17, 0x25, 0x3a, 0xbc,
  0xc4, 0x8c, 0xdf, 0xbc, 0xf9, 0x53, 0x01, 0x3d, 0xdb, 0x5a, 0x73, 0x3c,
  0xe9, 0xe2, 0x67, 0x3c, 0x8b, 0xce, 0x97, 0xbd, 0x9f, 0x90, 0x0e, 0xbd,
  0xe6, 0x36, 0x29, 0xbd, 0xe5, 0xd1, 0x97, 0xbb, 0x8e, 0x01, 0xcd, 0xbd,
  0x70, 0x85, 0x07, 0x3e, 0xe2, 0x15, 0x19, 0xbd, 0x33, 0x4d, 0xdc, 0x3c,
  0xe1, 0xb9, 0xad, 0xbd, 0xbb, 0xac, 0xde, 0xbd, 0xc3, 0x49, 0x9b, 0xbd,
  0x6f, 0x9a, 0x51, 0x3d, 0x50, 0x3b, 0x87, 0x3d, 0xc7, 0x5a, 0x65, 0xbd,
  0xec, 0x8f, 0x81, 0xbd, 0x31, 0x66, 0x0b, 0xbe, 0x53, 0xe6, 0x53, 0x3d,
  0x0b, 0xa5, 0x8c, 0x3d, 0xe4, 0x50, 0x1d, 0xbb, 0x55, 0x92, 0xb4, 0xbd,
  0x4b, 0x35, 0xf3, 0x3d, 0xa5, 0xbb, 0x4c, 0xbe, 0x3b, 0x01, 0xa6, 0xbd,
  0x03, 0xc9, 0x80, 0x3d, 0x5a, 0x33, 0x9f, 0x3d, 0x85, 0xf9, 0xdc, 0x3c,
  0xeb, 0x48, 0x5e, 0x3d, 0x04, 0x36, 0x07, 0xbe, 0xb8, 0xd9, 0x8a, 0xbd,
  0x78, 0x22, 0xc3, 0x3d, 0x22, 0xc8, 0x22, 0x3d, 0xa5, 0xeb, 0xd6, 0xbd,
  0x7e, 0x0b, 0x49, 0x3d, 0x98, 0x5b, 0x41, 0xbe, 0xb7, 0x02, 0xbe, 0x3d,
  0x4c, 0x60, 0xa3, 0xbd, 0x5e, 0xfc, 0xe3, 0xbc, 0x1c, 0xe9, 0xd6, 0x39,
  0x76, 0xa2, 0xcc, 0x3c, 0xc2, 0xed, 0x0e, 0xbe, 0xc2, 0x8e, 0x2f, 0xbd,
  0xa5, 0x60, 0x10, 0xbe, 0x77, 0x62, 0x8a, 0xbc, 0xa2, 0xc4, 0x98, 0xbc,
  0x83, 0x5f, 0xfa, 0x3d, 0x6e, 0x0c, 0xb7, 0xbd, 0xc6, 0xc3, 0x88, 0xbc,
  0x61, 0x09, 0x60, 0xbe, 0xc8, 0x97, 0x8c, 0xbc, 0x8d, 0xcd, 0x92, 0x3d,
  0xdd, 0x75, 0xbb, 0xbc, 0x7c, 0x66, 0x31, 0xbd, 0xf8, 0x58, 0x98, 0x3c,
  0x33, 0x82, 0xd8, 0xbd, 0x5b, 0xb4, 0x0a, 0xbe, 0x43, 0x3a, 0xf2, 0x3c,
  0x37, 0xc1, 0xb6, 0x38, 0xdf, 0xd5, 0xa3, 0xbd, 0x12, 0x98, 0x21, 0x3e,
  0xd4, 0x40, 0xfd, 0xbd, 0x17, 0xcc, 0x5e, 0xbd, 0x55, 0x96, 0xb3, 0xbd,
  0x45, 0xe4, 0x05, 0xbd, 0xe9, 0x39, 0xb0, 0xbc, 0x51, 0x08, 0x87, 0x3d,
  0x24, 0x59, 0x5d, 0xbd, 0x4b, 0xb4, 0x86, 0xbd, 0x3c, 0xbf, 0xc1, 0x3d,
  0x53, 0x1b, 0xa6, 0xbd, 0x3e, 0xb7, 0x56, 0xbb, 0x40, 0x11, 0x11, 0x3d,
  0xb0, 0x89, 0x4e, 0xbd, 0x07, 0x3e, 0x25, 0xbd, 0xe0, 0x7f, 0x0d, 0x3d,
  0xc2, 0x05, 0x7e, 0xbc, 0xbd, 0xdf, 0x8c, 0x3d, 0x19, 0x8e, 0x97, 0xbd,
  0x92, 0x7a, 0x81, 0xbd, 0xa3, 0xa6, 0x8c, 0x3d, 0x50, 0xdb, 0x68, 0x3d,
  0xdb, 0x79, 0xb9, 0xbc, 0xc5, 0x51, 0x06, 0x3e, 0xfa, 0xcb, 0xe4, 0x3d,
  0x75, 0x38, 0x1a, 0xbe, 0xae, 0xca, 0x06, 0x3d, 0x7c, 0x44, 0x2e, 0x3c,
  0xab, 0x1b, 0xa1, 0xbd, 0xfd, 0x5a, 0x5f, 0x3e, 0x80, 0xac, 0x5b, 0xbc,
  0xa4, 0x9b, 0x4d, 0xbe, 0xa3, 0xbe, 0x83, 0xbd, 0x65, 0xd6, 0x2d, 0x3d,
  0x07, 0xfa, 0xe5, 0xbd, 0x30, 0x1e, 0xa5, 0x3d, 0x6a, 0x39, 0xa2, 0x3d,
  0xff, 0xc9, 0x67, 0xbc, 0x5d, 0xbe, 0x88, 0xbd, 0xcf, 0x1d, 0x32, 0xbd,
  0x2f, 0xee, 0x2d, 0xbd, 0x6b, 0xd5, 0x27, 0x3e, 0x44, 0xd4, 0x79, 0x3d,
  0xd1, 0x76, 0x15, 0x3e, 0xb6, 0x9a, 0x08, 0x3c, 0x7c, 0x19, 0xcd, 0xbd,
  0xaa, 0x9b, 0x7d, 0xbd, 0x14, 0x5e, 0x29, 0x3e, 0xb2, 0xd9, 0x6e, 0x3d,
  0x14, 0x69, 0xe6, 0xbc, 0x43, 0x59, 0x83, 0x3d, 0x4b, 0x7b, 0x73, 0xbd,
  0xdc, 0xc7, 0xb4, 0xbd, 0xbe, 0xe3, 0x0b, 0x3e, 0x4b, 0xdb, 0x66, 0x3c,
  0x4a, 0x82, 0xe4, 0x3d, 0xd0, 0xe8, 0xd1, 0xbd, 0xdf, 0x3d, 0x1f, 0xbc,
  0x78, 0x83, 0xdc, 0xbd, 0x3a, 0x50, 0x08, 0x3e, 0xc6, 0x9e, 0xfc, 0x3d,
  0xcb, 0x90, 0x30, 0x3e, 0xdf, 0xd4, 0xa8, 0x3d, 0x05, 0xf1, 0x07, 0xbe,
  0x22, 0xb4, 0x3e, 0xbe, 0xc6, 0xf3, 0x6f, 0x3e, 0x20, 0x44, 0x1c, 0xbc,
  0x29, 0x1b, 0x39, 0x3e, 0x45, 0x78, 0x73, 0x3a, 0xe6, 0x23, 0x3e, 0xbe,
  0xbe, 0xdf, 0x78, 0xbc, 0xe2, 0x23, 0x14, 0x3e, 0x98, 0x58, 0xb9, 0x3d,
  0x69, 0x17, 0x0b, 0x3e, 0xf1, 0x71, 0x86, 0x3d, 0xaa, 0x46, 0xf8, 0xb9,
  0x12, 0x22, 0x6c, 0x3d, 0xf6, 0x1f, 0x90, 0x3d, 0x12, 0x01, 0x1c, 0x3e,
  0x2a, 0xcd, 0x18, 0x3e, 0x1c, 0x4f, 0xa9, 0x3d, 0xd7, 0xba, 0xc5, 0x3c,
  0x2e, 0x93, 0x47, 0xbd, 0x30, 0xc6, 0x7e, 0x3c, 0x64, 0x79, 0x35, 0x3d,
  0x54, 0x40, 0xf4, 0x3d, 0x0e, 0x58, 0x8d, 0x3c, 0x19, 0x95, 0x8d, 0xbd,
  0xb4, 0xce, 0x10, 0x3d, 0xa9, 0x7e, 0x15, 0x3d, 0x3f, 0xf9, 0x1e, 0xbd,
  0x58, 0xae, 0x41, 0x3d, 0x10, 0xbc, 0x3b, 0xbd, 0x13, 0x0f, 0x96, 0xbd,
  0xf8, 0xb9, 0xcc, 0xbd, 0x03, 0x19, 0x0e, 0xbd, 0xb3, 0x01, 0xc9, 0x3d,
  0xe0, 0x78, 0xa8, 0x3d, 0xe2, 0xe6, 0xd5, 0xbc, 0xd2, 0x70, 0x71, 0xbd,
  0x52, 0x17, 0xea, 0x3c, 0x96, 0x79, 0x2b, 0xbe, 0xd3, 0x49, 0xa9, 0xbc,
  0xc2, 0xa3, 0x98, 0x3d, 0x03, 0xc1, 0xf7, 0x3d, 0x87, 0x62, 0x2a, 0xbe,
  0xdf, 0xbb, 0x2d, 0x3d, 0xc1, 0x04, 0xc9, 0xbd, 0x0b, 0x39, 0xeb, 0x3d,
  0xa6, 0x78, 0xac, 0x3d, 0x0f, 0x42, 0x82, 0x3d, 0xe2, 0x32, 0x36, 0xbe,
  0xcf, 0x15, 0x01, 0x3e, 0x42, 0xee, 0x37, 0xbe, 0xa5, 0x99, 0x89, 0x3d,
  0x00, 0x42, 0xbf, 0x3c, 0x30, 0xef, 0x0e, 0x3e, 0x2f, 0x61, 0xa9, 0x3d,
  0xcf, 0x8d, 0x31, 0xbd, 0x5f, 0x94, 0xad, 0xbd, 0xe6, 0x50, 0x59, 0xbd,
  0x87, 0xcb, 0x36, 0xbd, 0xe6, 0x90, 0x3c, 0x3d, 0x22, 0x6a, 0xe3, 0xbd,
  0xa9, 0xc4, 0xd2, 0x3d, 0x39, 0x31, 0xb2, 0xbd, 0x51, 0x5b, 0x7c, 0x3d,
  0xab, 0x3b, 0x50, 0x3d, 0x56, 0xb0, 0x68, 0x3d, 0xc0, 0xd3, 0x62, 0x3d,
  0x28, 0x43, 0xba, 0x3d, 0x83, 0x0a, 0x1b, 0xbe, 0x4f, 0x5b, 0x71, 0xbb,
  0x0f, 0x72, 0xd0, 0xbd, 0x4e, 0xaa, 0xb9, 0x3d, 0x2f, 0x67, 0x12, 0xbd,
  0x71, 0x33, 0xd7, 0x3c, 0xc3, 0x2b, 0xcc, 0x3c, 0x3b, 0xb8, 0xec, 0xbd,
  0x3d, 0x5f, 0xfc, 0xba, 0x75, 0xb9, 0x3c, 0xbc, 0xac, 0x01, 0x02, 0x3c,
  0xed, 0x8c, 0x34, 0xbd, 0x38, 0xa8, 0x40, 0xbc, 0xbf, 0x49, 0xa6, 0xbd,
  0x25, 0x15, 0x50, 0x3d, 0x68, 0xaa, 0xa9, 0xbc, 0xd2, 0x34, 0x5a, 0x3d,
  0x38, 0x72, 0x94, 0x3c, 0x0b, 0x54, 0xdc, 0x3c, 0x05, 0x24, 0x01, 0xbe,
  0xd9, 0x68, 0x6c, 0xbd, 0x78, 0x6b, 0xc8, 0x3b, 0x8b, 0xb5, 0x05, 0xbe,
  0x05, 0x18, 0xab, 0xbd, 0xb6, 0xba, 0xc4, 0xbc, 0x3d, 0x88, 0xe4, 0xbd,
  0xd4, 0xf0, 0x1a, 0x3d, 0x6c, 0xc9, 0x0a, 0x3e, 0xcc, 0xbe, 0x2b, 0xbe,
  0xd1, 0x92, 0x22, 0x3d, 0xad, 0x8b, 0x13, 0x3e, 0x9a, 0x2e, 0x14, 0x3c,
  0x32, 0x0d, 0x53, 0xbd, 0x30, 0xf3, 0x17, 0x3e, 0xc7, 0x82, 0xc3, 0x3c,
  0x60, 0x1d, 0x66, 0xbd, 0xf3, 0xdb, 0xce, 0x3d, 0x8b, 0x0c, 0x08, 0x3e,
  0x12, 0xff, 0x7c, 0xbd, 0x57, 0xc1, 0x17, 0xbd, 0xbb, 0xd8, 0x4c, 0xbc,
  0x52, 0x79, 0x8b, 0xbb, 0xf8, 0xd3, 0xcf, 0xbc, 0x07, 0x0b, 0x1c, 0x3d,
  0x65, 0x3e, 0x17, 0x3c, 0x66, 0x02, 0x92, 0x3c, 0x75, 0xf3, 0x94, 0xbd,
  0x7d, 0x32, 0x5a, 0xbc, 0x1b, 0xb0, 0x37, 0xbd, 0x5e, 0x2c, 0x42, 0x3c,
  0x9a, 0x68, 0xbb, 0x3d, 0x4b, 0x62, 0x8e, 0x3c, 0x73, 0x1a, 0xbc, 0x3b,
  0x78, 0xfe, 0xcd, 0xbd, 0x29, 0x1b, 0x82, 0xbb, 0xd0, 0xc4, 0xc0, 0xbd,
  0x01, 0x8e, 0xaa, 0xbd, 0xac, 0x98, 0x81, 0x3c, 0x82, 0xff, 0xe7, 0x3c,
  0x79, 0x15, 0xc6, 0x3c, 0x94, 0x9d, 0x26, 0xbd, 0x4d, 0xbc, 0xa8, 0x3d,
  0xda, 0xea, 0x97, 0x3d, 0xf8, 0x24, 0x3a, 0xbe, 0x7f, 0xb6, 0x73, 0x3d,
  0x19, 0xbc, 0xee, 0x3c, 0x8d, 0x7c, 0xd3, 0x3d, 0x53, 0x1f, 0x2c, 0xbe,
  0xd5, 0xfc, 0x81, 0x3b, 0xdc, 0xaf, 0x40, 0xbd, 0x1a, 0xbe, 0x98, 0xbd,
  0x77, 0x87, 0xc7, 0xbc, 0xaa, 0x85, 0x98, 0xbd, 0xbb, 0x3f, 0x57, 0x3c,
  0xb0, 0x46, 0x60, 0xbd, 0x42, 0x1c, 0x0d, 0xbe, 0xcd, 0x08, 0x02, 0x3d,
  0xf5, 0x44, 0x86, 0x3d, 0xfd, 0xf6, 0x18, 0xbd, 0xa5, 0x7c, 0x34, 0x3e,
  0x1d, 0x7f, 0x89, 0x3d, 0x15, 0xf0, 0x7f, 0x3d, 0x2e, 0xe5, 0x47, 0xbc,
  0xea, 0x92, 0x09, 0x3d, 0xdf, 0xcc, 0xb5, 0xbd, 0xc8, 0x02, 0x0b, 0x3c,
  0x91, 0xd4, 0xcd, 0xbd, 0x2e, 0x3d, 0x83, 0xbd, 0x23, 0x2f, 0x9a, 0xbc,
  0x55, 0x51, 0xb8, 0xbd, 0x38, 0xba, 0x1c, 0xbe, 0x91, 0x7c, 0x84, 0x3c,
  0x22, 0x38, 0x08, 0xbc, 0x2a, 0x49, 0xee, 0xbc, 0x70, 0xa5, 0xe0, 0x3d,
  0xfc, 0x97, 0xdc, 0x3c, 0xbe, 0x72, 0x42, 0xbd, 0x47, 0xdf, 0x96, 0x3d,
  0xaa, 0xf1, 0x23, 0xbd, 0xeb, 0xd9, 0xbb, 0xbd, 0xe2, 0xa7, 0x1c, 0xbe,
  0xf9, 0xdd, 0xea, 0x3c, 0xd6, 0x43, 0x17, 0xbe, 0x76, 0x01, 0x62, 0x3b,
  0x9c, 0x31, 0x49, 0xbd, 0x93, 0xf6, 0x03, 0xbd, 0x33, 0x90, 0x9f, 0xbc,
  0xaf, 0x36, 0xa3, 0x3d, 0xa0, 0x62, 0x2e, 0xbe, 0x5f, 0xfa, 0xda, 0x3d,
  0xde, 0x1b, 0x95, 0xbd, 0x92, 0x6e, 0x84, 0x3d, 0x04, 0x57, 0x81, 0x3c,
  0xcd, 0x05, 0x28, 0x3d, 0x95, 0xc7, 0xf4, 0xbd, 0xa6, 0x53, 0xd6, 0xbc,
  0x9e, 0x09, 0xbf, 0xbb, 0x88, 0x7a, 0x12, 0x3d, 0xeb, 0x1d, 0x3c, 0xbc,
  0x32, 0x5e, 0xdd, 0x3c, 0x11, 0xc1, 0x22, 0xbe, 0xfe, 0x48, 0x85, 0x3c,
  0x87, 0x87, 0x6a, 0x3b, 0xe8, 0x5a, 0xe2, 0x3d, 0x5b, 0x71, 0x2a, 0xbe,
  0x97, 0x26, 0x69, 0xbc, 0xe7, 0x6a, 0xef, 0xbd, 0xbc, 0xee, 0x32, 0x3d,
  0xab, 0x39, 0x04, 0xbd, 0x30, 0x38, 0x92, 0xbc, 0xda, 0x49, 0x99, 0x3c,
  0xd3, 0x7a, 0x11, 0xbd, 0xbb, 0x30, 0xa2, 0x3c, 0x66, 0x20, 0x9d, 0x3c,
  0xde, 0xb1, 0x18, 0x3c, 0x52, 0xdf, 0xb4, 0x3d, 0xa8, 0xb0, 0x49, 0x3d,
  0x26, 0x47, 0x3e, 0xbd, 0x1b, 0x5f, 0x65, 0xbd, 0xa2, 0x21, 0xcf, 0xbb,
  0x44, 0xa4, 0x8a, 0xbd, 0x36, 0xe4, 0x15, 0x3d, 0xc0, 0xc2, 0x2c, 0x3d,
  0x23, 0xd3, 0xed, 0x3c, 0x29, 0x34, 0x9f, 0x3d, 0xa6, 0xee, 0xdb, 0xbc,
  0x3f, 0x46, 0x02, 0xbd, 0x6e, 0x27, 0xae, 0xbc, 0x42, 0x33, 0x9f, 0x3d,
  0xe1, 0xd8, 0x06, 0xbd, 0xfd, 0x29, 0x1d, 0x3d, 0x34, 0x10, 0xd9, 0x3c,
  0xf8, 0x3e, 0x81, 0xbd, 0x2b, 0xbb, 0xff, 0xbb, 0x8f, 0x46, 0xb0, 0xbc,
  0x08, 0xb8, 0xd5, 0x3c, 0x8b, 0xdb, 0xa4, 0xbd, 0x17, 0x16, 0x42, 0x3d,
  0x9b, 0xad, 0xae, 0x3c, 0x00, 0xaf, 0x96, 0x3c, 0x61, 0x82, 0x61, 0x3d,
  0x1b, 0x1d, 0x09, 0x3e, 0x5d, 0x5e, 0x39, 0x3c, 0x43, 0x1b, 0xcc, 0xbd,
  0x6e, 0x10, 0x13, 0x3d, 0xcc, 0xe8, 0x63, 0x3d, 0x10, 0x82, 0xe2, 0xbd,
  0x94, 0x4a, 0x95, 0x3d, 0xf8, 0x14, 0xb8, 0x3d, 0xcf, 0x3c, 0x8c, 0xbd,
  0x26, 0xac, 0x56, 0xbd, 0xa5, 0x53, 0xdb, 0x3c, 0xe0, 0xb9, 0xa5, 0x3c,
  0x05, 0x04, 0x88, 0x3b, 0x5c, 0xbe, 0x96, 0x3d, 0xf1, 0x2a, 0xc1, 0xbc,
  0x2b, 0x09, 0x99, 0xbd, 0x8f, 0x60, 0xb8, 0xbd, 0xa4, 0x7a, 0x7f, 0xbc,
  0x4e, 0xa6, 0x6a, 0x3b, 0x0a, 0xa3, 0xba, 0x3d, 0x80, 0x9a, 0xc3, 0x3c,
  0xbf, 0x20, 0x9e, 0xbd, 0x1d, 0x87, 0x92, 0xbd, 0x11, 0xef, 0x86, 0xbe,
  0x12, 0x8c, 0xe6, 0xbc, 0x66, 0x7a, 0x82, 0xbc, 0xa6, 0xc9, 0x41, 0xbd,
  0x7e, 0x27, 0xbc, 0x3c, 0xf6, 0x25, 0xaf, 0x3d, 0x19, 0xa3, 0xb5, 0xbd,
  0x61, 0x2f, 0x80, 0x3c, 0x60, 0x8f, 0x71, 0x3d, 0xdf, 0x97, 0x37, 0xbd,
  0xcf, 0x7e, 0x37, 0x3e, 0xa8, 0x6b, 0x7f, 0xbc, 0xfe, 0x63, 0xc0, 0x3d,
  0x03, 0x4f, 0x00, 0x3d, 0x8a, 0x60, 0x9d, 0x3d, 0x83, 0xab, 0xf6, 0x3b,
  0x0f, 0x9c, 0x7d, 0xbc, 0xe5, 0x7f, 0xcf, 0x3d, 0xba, 0x68, 0x1c, 0xbd,
  0x41, 0x2c, 0x8d, 0xbd, 0x1d, 0xca, 0xcb, 0x3c, 0xf9, 0x81, 0xaa, 0xbb,
  0x66, 0x0f, 0x45, 0x3d, 0xfe, 0xe8, 0x01, 0x3d, 0xa4, 0x12, 0x04, 0x3d,
  0xa3, 0x2b, 0x2d, 0x3e, 0x43, 0x1e, 0xc5, 0x3c, 0x57, 0xff, 0x34, 0xbe,
  0xc4, 0x18, 0xd1, 0xbd, 0xd2, 0x69, 0xa7, 0x3d, 0x60, 0xd9, 0xab, 0x3d,
  0xbf, 0x28, 0x1a, 0x3d, 0xf3, 0xf2, 0xe0, 0xbb, 0x3f, 0xcd, 0xce, 0xbd,
  0xd5, 0x99, 0x0e, 0x3d, 0x1c, 0x5d, 0x94, 0xbb, 0xd0, 0xff, 0x8e, 0x3d,
  0xfb, 0xb3, 0x70, 0x3d, 0x0d, 0x54, 0x93, 0x3d, 0xab, 0x2d, 0xc5, 0xbd,
  0xde, 0x9a, 0x0a, 0xbe, 0xcc, 0x3a, 0xa0, 0x3d, 0x01, 0xf8, 0x40, 0x3e,
  0x1a, 0xa3, 0x85, 0x3d, 0xda, 0xeb, 0x5d, 0xbd, 0xbf, 0x38, 0xe8, 0xbd,
  0x68, 0x3a, 0xe7, 0xbd, 0xc5, 0xe2, 0xaa, 0x3c, 0xc3, 0x4e, 0xf1, 0x3c,
  0xe8, 0xcb, 0xd7, 0xbb, 0x87, 0xcb, 0xf7, 0x3b, 0x78, 0x61, 0x25, 0xbe,
  0xbf, 0x5d, 0x3c, 0xbe, 0x5b, 0xf9, 0x2c, 0x3d, 0x8c, 0x40, 0x78, 0x3d,
  0xc6, 0x44, 0x48, 0xbd, 0xdf, 0xec, 0x25, 0xbc, 0x71, 0x0b, 0x47, 0xbd,
  0x26, 0x3c, 0x91, 0xbd, 0xff, 0x92, 0x3c, 0x3d, 0xc5, 0x65, 0x52, 0x3d,
  0xc1, 0xbe, 0xd3, 0x3d, 0xd4, 0xea, 0xa8, 0xbd, 0xae, 0x81, 0xa8, 0xbd,
  0xce, 0xa3, 0xff, 0x3b, 0xca, 0x99, 0x42, 0x3d, 0x3f, 0x79, 0x44, 0x3e,
  0xdd, 0xd4, 0x02, 0xbd, 0x8e, 0x71, 0xcf, 0xbb, 0xd5, 0x75, 0xec, 0xbd,
  0x22, 0x49, 0x88, 0xbc, 0x4b, 0x00, 0x34, 0xbb, 0x9f, 0x52, 0xf4, 0x3d,
  0x16, 0xf9, 0x85, 0x3d, 0xa7, 0xc4, 0x02, 0xbe, 0x0f, 0xc5, 0x0d, 0x3d,
  0xad, 0xd8, 0x24, 0xbe, 0x43, 0x54, 0x4d, 0x3d, 0xe7, 0x01, 0xb4, 0x3d,
  0x5c, 0xec, 0x30, 0x3d, 0xa2, 0x41, 0xf3, 0xbd, 0xe3, 0xf7, 0xde, 0x3c,
  0x4e, 0x38, 0x17, 0xbe, 0xd5, 0xff, 0x2a, 0x3d, 0xce, 0xa8, 0x83, 0x3d,
  0x2a, 0xbe, 0x81, 0x3c, 0xb0, 0xe1, 0x9d, 0x3c, 0xfd, 0xd0, 0x39, 0x3c,
  0x44, 0xbf, 0x9f, 0xbd, 0x34, 0x15, 0x71, 0xbd, 0x82, 0xb9, 0xc6, 0xbc,
  0x3f, 0x29, 0x0c, 0x3d, 0x1f, 0xa6, 0x6d, 0xbd, 0x3f, 0x02, 0xbc, 0x3c,
  0xe9, 0xc2, 0x82, 0x3c, 0x37, 0xd1, 0x9d, 0xbd, 0xe0, 0x32, 0x00, 0x3e,
  0x27, 0xb4, 0xa7, 0xbc, 0xed, 0xe2, 0x28, 0x3d, 0xb4, 0xd8, 0x80, 0x3d,
  0x91, 0x6d, 0x5c, 0x3d, 0x22, 0x96, 0x89, 0xbc, 0xeb, 0x97, 0x8f, 0x3c,
  0x51, 0xb4, 0x75, 0xbd, 0x75, 0x73, 0x35, 0x3d, 0x6e, 0x36, 0xf7, 0x3d,
  0x6d, 0xd3, 0x24, 0xbd, 0xf1, 0x6c, 0x51, 0xbd, 0xbf, 0x4f, 0x41, 0x3d,
  0xbe, 0x5d, 0xc8, 0xbd, 0x3c, 0xac, 0x2b, 0x3e, 0x88, 0x90, 0x97, 0x3c,
  0x9e, 0x3b, 0x45, 0xbc, 0x96, 0x61, 0x29, 0x3d, 0x99, 0xa7, 0x2a, 0xbd,
  0x53, 0x44, 0x45, 0xbc, 0x35, 0x30, 0xe1, 0x3d, 0xc9, 0x26, 0xe1, 0x3c,
  0x59, 0xee, 0x5b, 0x3d, 0x5b, 0xed, 0x31, 0xbd, 0xba, 0x92, 0x9f, 0x3d,
  0xe3, 0x8b, 0x85, 0xbd, 0x64, 0x87, 0x18, 0x3e, 0x0d, 0xdf, 0x5e, 0x3b,
  0x08, 0x07, 0x55, 0x3c, 0xbf, 0x98, 0x51, 0x3d, 0x4c, 0x06, 0x9a, 0x3d,
  0x26, 0x91, 0x13, 0xbe, 0x5f, 0xbe, 0x9e, 0x3d, 0xba, 0x55, 0x82, 0x3d,
  0xac, 0xba, 0x69, 0x3d, 0x4a, 0x1a, 0xa2, 0xbc, 0xa0, 0x6d, 0xb2, 0xbd,
  0x5b, 0x55, 0x49, 0xbd, 0xe1, 0x1f, 0x79, 0x3e, 0x43, 0xef, 0xe1, 0x3d,
  0xc9, 0x2f, 0x15, 0x3d, 0x2e, 0xa7, 0x18, 0xbd, 0xe5, 0x35, 0x35, 0xbe,
  0x13, 0xa3, 0x86, 0x3d, 0xf0, 0x28, 0xfc, 0x3d, 0x47, 0xbc, 0xa0, 0xbd,
  0xd8, 0x24, 0xa3, 0x3d, 0x3d, 0xef, 0x71, 0xbd, 0xa9, 0x39, 0x8e, 0xbd,
  0x76, 0x19, 0x91, 0x3c, 0x69, 0x7b, 0x44, 0x3c, 0x9c, 0xcf, 0x03, 0x3c,
  0x40, 0xf9, 0x3e, 0x3e, 0x1f, 0xcc, 0xbf, 0x3d, 0x29, 0xcc, 0x04, 0xbe,
  0xd8, 0x13, 0xf7, 0xbc, 0x08, 0xe4, 0x05, 0x3c, 0x31, 0x40, 0xad, 0x3d,
  0x87, 0xf8, 0xe3, 0x3d, 0xfb, 0x52, 0x76, 0xbd, 0x00, 0xad, 0xe1, 0x3d,
  0xe0, 0x22, 0xd2, 0x3d, 0x23, 0x25, 0x9e, 0xbc, 0x6f, 0x1a, 0x02, 0x3e,
  0xf1, 0xce, 0x08, 0xbc, 0x6a, 0xfd, 0x9a, 0x3d, 0xe7, 0xc3, 0xfd, 0x3c,
  0x7a, 0xca, 0xbe, 0x3c, 0x12, 0x9d, 0x45, 0x3c, 0x09, 0x7a, 0x06, 0x3e,
  0x1c, 0xaf, 0xdb, 0x3d, 0xfd, 0x4b, 0x0f, 0x3d, 0x27, 0x98, 0x00, 0x3e,
  0x6d, 0xef, 0xbe, 0x3d, 0x21, 0x08, 0xc9, 0xbd, 0x19, 0xd2, 0xd8, 0x3d,
  0x1d, 0x85, 0x7b, 0x3d, 0x28, 0xf4, 0xcb, 0x3c, 0xb4, 0x04, 0xca, 0x3d,
  0x93, 0x6c, 0x32, 0x3c, 0x1a, 0xc0, 0x26, 0xbe, 0xe2, 0x52, 0x30, 0x3d,
  0x2b, 0x0f, 0xdd, 0xbd, 0x96, 0xbd, 0x70, 0x3d, 0xd4, 0x78, 0x0f, 0x3d,
  0xc8, 0x49, 0x11, 0x3d, 0xe7, 0xab, 0xe2, 0xbd, 0xad, 0x31, 0x1b, 0x3e,
  0xec, 0x44, 0x09, 0xbe, 0x77, 0x76, 0x47, 0x3d, 0x12, 0xce, 0x63, 0x3e,
  0xfc, 0x4a, 0xc8, 0x3d, 0xc1, 0x6d, 0xc7, 0x3c, 0x44, 0x53, 0xb6, 0x3d,
  0x72, 0xeb, 0xbf, 0xbd, 0xa5, 0xa5, 0xcf, 0x3c, 0xcc, 0x61, 0x27, 0x3e,
  0x05, 0x58, 0x9d, 0xbd, 0x57, 0x83, 0x37, 0x3e, 0xc7, 0xf3, 0xd8, 0x3c,
  0xca, 0x18, 0x0c, 0x3e, 0xf4, 0xd1, 0x27, 0x3e, 0x05, 0x08, 0x87, 0xbc,
  0x08, 0xe6, 0xc5, 0x3d, 0xc4, 0x96, 0x77, 0x3e, 0x80, 0x26, 0x8c, 0x3d,
  0x8d, 0xa4, 0x59, 0x3e, 0xc2, 0xf6, 0xf8, 0x3d, 0xaf, 0x17, 0x20, 0x3e,
  0x27, 0xdc, 0x6b, 0x3d, 0x43, 0x59, 0xc6, 0x3e, 0x3d, 0xb6, 0xac, 0x3d,
  0x1f, 0x09, 0xcc, 0x3d, 0x68, 0x81, 0x9b, 0x3d, 0x09, 0xe6, 0xbd, 0x3d,
  0xf8, 0xed, 0xb8, 0xbc, 0x52, 0xa2, 0xa7, 0x3e, 0x25, 0x84, 0x8e, 0x3d,
  0x4f, 0x8a, 0x59, 0x3e, 0x43, 0x89, 0x94, 0xbc, 0xf1, 0x6f, 0x02, 0x3e,
  0x17, 0xf3, 0x15, 0x3d, 0x9b, 0x5d, 0x97, 0x3e, 0x6a, 0xd5, 0xf3, 0x3d,
  0xcc, 0x9f, 0x0b, 0x3e, 0x30, 0x81, 0xab, 0x3d, 0xce, 0x60, 0x98, 0x3d,
  0x40, 0x27, 0xea, 0x3c, 0x02, 0xd9, 0xae, 0x3e, 0x73, 0xeb, 0xe3, 0x3d,
  0x11, 0xae, 0x3b, 0x3e, 0xe1, 0xdd, 0xbb, 0x3d, 0x2c, 0x4f, 0x49, 0x3d,
  0x57, 0x9b, 0xae, 0xbd, 0x33, 0xbc, 0x77, 0x3e, 0xac, 0x9a, 0xa2, 0x3d,
  0xeb, 0xcd, 0xab, 0x3e, 0x80, 0xc2, 0xec, 0x3d, 0x23, 0xc0, 0x8b, 0x3d,
  0xcf, 0xdd, 0x9a, 0xbd, 0xb8, 0x04, 0xa4, 0x3e, 0xf4, 0x85, 0x53, 0x3d,
  0xdd, 0x41, 0x98, 0x3e, 0x76, 0x31, 0x1f, 0x3c, 0x04, 0x94, 0x92, 0x3e,
  0x20, 0x53, 0x0a, 0xbe, 0xd0, 0xe8, 0xc5, 0x3e, 0x1b, 0x66, 0x3c, 0x3e,
  0xda, 0x73, 0x99, 0x3e, 0xfe, 0x8d, 0x8f, 0xbd, 0x30, 0x12, 0x83, 0x3e,
  0xb8, 0x94, 0xec, 0xbd, 0xd5, 0xbf, 0xaa, 0x3e, 0xe4, 0xcd, 0xd2, 0x3d,
  0xe3, 0xcf, 0x23, 0x3e, 0x54, 0x10, 0xa3, 0xbd, 0x4d, 0x18, 0x72, 0x3e,
  0xa0, 0xae, 0xbe, 0xba, 0xd9, 0x73, 0x39, 0x3e, 0x66, 0x2f, 0xdb, 0x3d,
  0x70, 0x09, 0x35, 0x3e, 0x5d, 0x4e, 0x79, 0xbc, 0x3e, 0x9c, 0x7e, 0x3e,
  0xed, 0xef, 0x9c, 0xbd, 0x1f, 0x90, 0x03, 0x3e, 0x30, 0x65, 0xce, 0x3d,
  0xf1, 0x1f, 0x63, 0x3e, 0xfe, 0x11, 0x85, 0xbd, 0x2d, 0x4f, 0x96, 0x3e,
  0x7d, 0xc2, 0xdf, 0xbb, 0x07, 0x6a, 0x2b, 0x3e, 0xbc, 0xf5, 0xae, 0x3d,
  0x05, 0x70, 0xf5, 0x3d, 0xb4, 0xa9, 0xba, 0xbd, 0x86, 0x51, 0x25, 0x3e,
  0xda, 0xe0, 0xf6, 0x3d, 0xec, 0x71, 0x03, 0x3d, 0xac, 0xd8, 0x60, 0x3d,
  0x96, 0xff, 0x8c, 0x3e, 0xbc, 0xfd, 0x0d, 0xbe, 0x8f, 0x1f, 0x33, 0x3e,
  0xc8, 0x70, 0x76, 0x3c, 0x98, 0x74, 0xc6, 0x3d, 0xff, 0xc5, 0x06, 0x3e,
  0xf3, 0x1e, 0x5a, 0x3e, 0x9f, 0x73, 0x36, 0xbe, 0x30, 0x36, 0x89, 0x3e,
  0x38, 0x6b, 0x9e, 0xbd, 0x52, 0x32, 0x8f, 0xbc, 0x39, 0x42, 0x6a, 0x3d,
  0x31, 0xb5, 0x31, 0x3e, 0x4e, 0xe8, 0x0f, 0xbe, 0x37, 0x24, 0xee, 0x3d,
  0xa2, 0x94, 0x60, 0xbd, 0x6e, 0xf0, 0x1f, 0x3d, 0xed, 0xe0, 0x4a, 0x3c,
  0x5c, 0xf2, 0x31, 0x3e, 0x34, 0x66, 0xa9, 0x3c, 0x34, 0xfb, 0xf9, 0x3d,
  0x60, 0x97, 0xaa, 0x3b, 0x79, 0xfc, 0x7d, 0xbc, 0x2b, 0xff, 0x82, 0xbd,
  0x11, 0x25, 0x40, 0x3b, 0xc3, 0x90, 0x37, 0xbe, 0xde, 0x0d, 0x7f, 0xbd,
  0x17, 0xee, 0xa8, 0xbd, 0x00, 0x08, 0x60, 0xbd, 0xcb, 0x0b, 0xeb, 0x3d,
  0x03, 0xa4, 0x34, 0xbd, 0xa2, 0x32, 0xf9, 0x3c, 0x0c, 0xd3, 0x0a, 0xbd,
  0x20, 0xb2, 0xbd, 0x3c, 0xcd, 0xa3, 0x5f, 0xbd, 0xb5, 0x47, 0x66, 0xbd,
  0x28, 0x59, 0x8e, 0xbd, 0x42, 0x33, 0xcf, 0xbd, 0xd7, 0x79, 0x67, 0xbd,
  0x82, 0x1d, 0xb6, 0xbd, 0x5c, 0xda, 0xe6, 0xbd, 0x4f, 0x34, 0x0a, 0x3d,
  0xf8, 0xea, 0x08, 0x3d, 0x27, 0xfc, 0xc7, 0xbc, 0x0b, 0xe2, 0xd6, 0xbc,
  0x33, 0xe5, 0x33, 0xbd, 0x9f, 0x9d, 0x0b, 0xbe, 0x13, 0x3e, 0x1d, 0xbe,
  0xa6, 0xd4, 0x89, 0xbe, 0x74, 0xe6, 0xdf, 0xbd, 0x2e, 0x3d, 0x8b, 0xbd,
  0xc7, 0xbb, 0x90, 0xbc, 0x50, 0xb5, 0x78, 0xbe, 0xda, 0x2b, 0x52, 0xbc,
  0x60, 0x22, 0xfd, 0xbd, 0x4a, 0x39, 0x11, 0xbe, 0xa3, 0xd7, 0x21, 0xbe,
  0x8c, 0x14, 0x10, 0x3d, 0x8b, 0xea, 0x12, 0xbe, 0x9b, 0xbd, 0xb3, 0x3c,
  0xac, 0xce, 0xed, 0xbc, 0x43, 0xa9, 0x88, 0xbd, 0xb1, 0x14, 0xf9, 0xbc,
  0xb7, 0x3d, 0xb9, 0xbd, 0xaa, 0x1f, 0x9f, 0xbe, 0xa0, 0xa0, 0xb1, 0xbb,
  0x58, 0x18, 0xa3, 0xbd, 0xbe, 0xb8, 0xff, 0xbd, 0x2c, 0xb9, 0x38, 0xbe,
  0x75, 0xc1, 0x7e, 0x3d, 0xd7, 0x39, 0x5c, 0xbe, 0x9e, 0xe5, 0x8c, 0x3c,
  0xc5, 0x79, 0x9a, 0xbd, 0x0b, 0x37, 0x00, 0xbe, 0x9b, 0x25, 0x36, 0xbe,
  0x6c, 0x9a, 0x18, 0x3e, 0xd1, 0x9d, 0x7e, 0xbe, 0x3a, 0xa2, 0x26, 0x3d,
  0x88, 0xc4, 0xa3, 0xbd, 0x2b, 0xcc, 0xa1, 0xbc, 0x24, 0xc3, 0xe7, 0xbd,
  0x70, 0xcb, 0xf8, 0x3d, 0x06, 0x52, 0x56, 0xbe, 0x76, 0x7d, 0xf7, 0x3c,
  0xc7, 0xbf, 0x88, 0xbc, 0xf2, 0xed, 0xcd, 0xbd, 0x9b, 0x45, 0x2b, 0xbe,
  0x18, 0x1b, 0x51, 0x3e, 0xea, 0x8f, 0x9c, 0xbe, 0xe0, 0x43, 0x42, 0xbb,
  0x24, 0x39, 0x3b, 0xbd, 0x4c, 0x42, 0x45, 0x3c, 0x5a, 0x53, 0x54, 0xbe,
  0x5e, 0xd8, 0x0f, 0x3e, 0x0d, 0x85, 0x25, 0xbe, 0xe2, 0x95, 0x4c, 0xbc,
  0x3f, 0x91, 0x01, 0xbc, 0x61, 0x04, 0xe3, 0xbc, 0x7a, 0x07, 0xf3, 0x3b,
  0xc6, 0x13, 0x36, 0x3e, 0xa1, 0x1c, 0x2a, 0xbe, 0x4c, 0x7c, 0xc3, 0xb8,
  0xa9, 0x7f, 0xde, 0xbd, 0x39, 0x85, 0xbd, 0x3d, 0xa1, 0x0c, 0x02, 0xbe,
  0x18, 0xfa, 0xc9, 0x3d, 0x7a, 0x70, 0x1e, 0xbe, 0x2f, 0x94, 0x44, 0xbe,
  0x1c, 0x73, 0x3b, 0xbe, 0xe7, 0x7b, 0x43, 0x3e, 0xca, 0x11, 0xb5, 0x3d,
  0xd1, 0x8b, 0x6e, 0x3e, 0xd0, 0x43, 0x52, 0xbe, 0x14, 0xe3, 0x44, 0xbd,
  0xea, 0x92, 0x47, 0xbe, 0xf2, 0xda, 0xe9, 0x3d, 0xc4, 0x96, 0x71, 0x3d,
  0xd3, 0xc6, 0x13, 0x3c, 0x7c, 0x42, 0x7b, 0xbe, 0x1e, 0xfa, 0xa9, 0xbc,
  0x8d, 0x3b, 0x13, 0xbe, 0xcf, 0x30, 0x34, 0x3d, 0x53, 0x4c, 0x0d, 0x3e,
  0xf3, 0xe7, 0x66, 0xbc, 0x7a, 0x09, 0x31, 0xbd, 0x5c, 0xf4, 0xfb, 0xbd,
  0xf8, 0xd8, 0xb5, 0xbd, 0xe8, 0x92, 0x3b, 0x3e, 0xd1, 0x3b, 0x8e, 0x3d,
  0x5d, 0x31, 0xe8, 0xbd, 0xd6, 0x8e, 0x9a, 0xbd, 0xec, 0xdd, 0xb6, 0x3c,
  0xb3, 0x8a, 0x57, 0xbd, 0x22, 0xb9, 0x55, 0x3d, 0x24, 0x70, 0xc7, 0x3d,
  0xe4, 0x4f, 0x0f, 0xbd, 0x32, 0x46, 0x04, 0xbe, 0x05, 0xc8, 0x2d, 0x3d,
  0x90, 0x99, 0xc4, 0xbc, 0x6e, 0x7f, 0xb1, 0x3d, 0x21, 0xab, 0x2a, 0x3d,
  0x78, 0x97, 0x07, 0xbd, 0x74, 0x10, 0xbe, 0xbd, 0xd7, 0x8b, 0x67, 0xbd,
  0xbf, 0xeb, 0xc0, 0x3c, 0xd7, 0x74, 0x37, 0x3e, 0x8a, 0x68, 0xa1, 0xbb,
  0xd3, 0x17, 0x38, 0xbd, 0x00, 0x35, 0xa2, 0xbd, 0x0c, 0x93, 0x7f, 0x3d,
  0xc6, 0xe2, 0x7d, 0x3d, 0xae, 0x3b, 0xb9, 0x3c, 0xc2, 0x25, 0x1e, 0xbe,
  0x50, 0x7f, 0x94, 0xbc, 0x50, 0x5d, 0xef, 0x3c, 0x20, 0x5b, 0x2a, 0x3d,
  0x22, 0x5b, 0x96, 0x3c, 0x5d, 0xd1, 0x08, 0xbc, 0x02, 0xa2, 0xd3, 0xbd,
  0xd7, 0x07, 0xb1, 0x3d, 0xf9, 0x07, 0xc5, 0x3c, 0xcb, 0x11, 0x82, 0x3b,
  0x64, 0x6b, 0x15, 0x3c, 0x38, 0xeb, 0x40, 0x3e, 0x77, 0x07, 0xde, 0x3d,
  0x6f, 0xdd, 0xbc, 0xbd, 0x1d, 0x17, 0x22, 0xbc, 0x27, 0x61, 0xdd, 0x3c,
  0x58, 0x80, 0x6f, 0xbd, 0x7b, 0xd5, 0x46, 0x3c, 0x8f, 0x89, 0x2d, 0x3b,
  0xa9, 0x58, 0xa7, 0xbc, 0x31, 0x33, 0xce, 0xbc, 0x66, 0xf9, 0xa8, 0xbd,
  0x43, 0x24, 0xfa, 0x3d, 0x7a, 0x17, 0x19, 0xbb, 0x43, 0x8b, 0xa5, 0xbd,
  0x2f, 0xeb, 0x09, 0xbe, 0x42, 0xce, 0x37, 0xbd, 0x08, 0x84, 0x5e, 0x3d,
  0x4a, 0x08, 0x9a, 0x3d, 0xf6, 0xc1, 0xcd, 0xbd, 0xd3, 0x8f, 0x9d, 0x3c,
  0x55, 0x1a, 0xa2, 0xbd, 0xec, 0xb1, 0x85, 0x3d, 0x42, 0x9f, 0x12, 0x3c,
  0xb1, 0x10, 0x1d, 0x3d, 0xdf, 0x2e, 0x90, 0xbb, 0x14, 0xd2, 0x11, 0xbc,
  0x8b, 0x20, 0xe9, 0x3c, 0xe7, 0x89, 0xc1, 0x3c, 0x4a, 0x3b, 0x3e, 0xbc,
  0xaf, 0xb5, 0x9b, 0x3d, 0x6e, 0x62, 0x1a, 0x3e, 0x37, 0x80, 0xd5, 0xbc,
  0x9e, 0x4c, 0xa5, 0x3d, 0x6d, 0x5d, 0x73, 0x3d, 0xf0, 0x0a, 0xf6, 0xbd,
  0x34, 0x1a, 0x6e, 0x3d, 0x65, 0x06, 0x1b, 0x3e, 0xab, 0xd2, 0x2d, 0xbe,
  0xcf, 0xa7, 0x1a, 0x3d, 0xdd, 0x78, 0xa6, 0xbc, 0xca, 0xac, 0x9e, 0xbd,
  0x9e, 0x9a, 0x0c, 0x3e, 0x28, 0x4a, 0xd4, 0xbc, 0x44, 0xe3, 0x5a, 0xbd,
  0x82, 0x62, 0xe7, 0x3d, 0x9e, 0xad, 0xfe, 0xbc, 0x0a, 0x96, 0x44, 0x3a,
  0xe9, 0x5b, 0xc5, 0x3b, 0xa2, 0xcf, 0xe5, 0x3d, 0xfe, 0x23, 0xf7, 0x3c,
  0xd4, 0x0b, 0x98, 0x3d, 0x14, 0x4e, 0x43, 0x3d, 0x93, 0x54, 0xb5, 0xbd,
  0xe7, 0x2b, 0x3e, 0x3d, 0x51, 0xfb, 0x89, 0x3c, 0xa9, 0x86, 0x19, 0xbe,
  0x10, 0x30, 0xf7, 0xbc, 0x2a, 0xc8, 0xd9, 0xbc, 0x3b, 0x35, 0x9e, 0xbc,
  0xab, 0x5c, 0x05, 0x3c, 0x05, 0xa7, 0x78, 0xbd, 0x43, 0x66, 0xf4, 0xbd,
  0x0b, 0x81, 0x4e, 0x3d, 0xfb, 0x88, 0x99, 0x3d, 0x6f, 0xbd, 0x0f, 0xbe,
  0xc2, 0xa4, 0xec, 0xbd, 0xdb, 0x03, 0x6a, 0x3d, 0x58, 0xa3, 0xf5, 0xbd,
  0x34, 0xa1, 0x90, 0xbd, 0x5b, 0x9c, 0xe8, 0x3c, 0xe0, 0x2d, 0xca, 0x3d,
  0xf0, 0x84, 0x06, 0xbd, 0xf4, 0xb6, 0x27, 0xbb, 0xf3, 0xfe, 0x60, 0xbd,
  0x1a, 0x33, 0xe1, 0xbc, 0x34, 0x30, 0xdf, 0x3d, 0x80, 0x37, 0xc3, 0xbd,
  0xeb, 0xc1, 0xf0, 0x3c, 0x2a, 0x22, 0xde, 0xbd, 0x9c, 0x9c, 0x91, 0x3d,
  0xa3, 0xd3, 0x8c, 0x3b, 0xcc, 0x70, 0x2f, 0x3e, 0xb8, 0x41, 0x4e, 0x3c,
  0x70, 0x1a, 0x31, 0xba, 0x7a, 0x34, 0x30, 0xbd, 0x94, 0xb5, 0x96, 0xbc,
  0xdf, 0xd4, 0xb3, 0xbb, 0x14, 0x5b, 0x9b, 0x3c, 0xb5, 0x2e, 0xe5, 0xbc,
  0xac, 0xed, 0xcc, 0x3d, 0xb1, 0x02, 0x88, 0xbd, 0x90, 0x84, 0xfb, 0x3d,
  0xa3, 0x81, 0xbf, 0xbc, 0x85, 0x5d, 0x53, 0x3e, 0x89, 0xa4, 0xf4, 0xbd,
  0xc7, 0xd5, 0x31, 0x3d, 0x7d, 0xd5, 0x58, 0x3d, 0xff, 0x84, 0xe3, 0x3d,
  0x90, 0x43, 0xe2, 0xbd, 0x5a, 0x65, 0xa5, 0x3d, 0x01, 0xfb, 0x61, 0xbd,
  0xbb, 0x44, 0x85, 0x3d, 0x55, 0xd5, 0x74, 0xbc, 0x21, 0xf5, 0x2d, 0xbb,
  0xaa, 0x46, 0xef, 0xbd, 0x24, 0x02, 0x05, 0x3e, 0xa5, 0x09, 0x2f, 0xbd,
  0xfc, 0x21, 0xa9, 0xbd, 0xbe, 0xea, 0x40, 0xbd, 0x5c, 0x6c, 0x9d, 0x3b,
  0x0a, 0xf9, 0x1e, 0xbe, 0xd3, 0x27, 0x8c, 0x3d, 0x69, 0x60, 0x3d, 0xbd,
  0xa6, 0xd6, 0x85, 0x39, 0xd8, 0xb7, 0xaa, 0xbd, 0xa7, 0x24, 0x3c, 0xbd,
  0xe5, 0x94, 0x5f, 0x3d, 0xa5, 0xc1, 0xcd, 0x3d, 0xbd, 0x77, 0x82, 0x3d,
  0xa0, 0x7c, 0x13, 0xbd, 0x4b, 0xd7, 0x5b, 0xbd, 0xbf, 0x1e, 0xbe, 0xbd,
  0xd5, 0x9c, 0x0b, 0x3e, 0xe2, 0xee, 0x04, 0x3d, 0xe1, 0x6a, 0xc2, 0x3b,
  0x68, 0xb9, 0x20, 0xbd, 0x30, 0xf0, 0x88, 0x3c, 0x8d, 0x52, 0x15, 0x3d,
  0x1a, 0x1d, 0xe4, 0x3c, 0xc9, 0x73, 0x6a, 0x3d, 0xa3, 0x65, 0x51, 0xbd,
  0x40, 0x77, 0x25, 0x3d, 0xb8, 0x41, 0xce, 0xbb, 0x23, 0x85, 0x37, 0x3e,
  0xc7, 0xd5, 0x29, 0xbc, 0x99, 0xb2, 0x17, 0x3e, 0xb7, 0xca, 0xac, 0xbb,
  0x01, 0x3c, 0xba, 0xbd, 0xce, 0xaa, 0xe8, 0xbc, 0x27, 0xbb, 0xd8, 0x3d,
  0xbe, 0xee, 0x95, 0x3c, 0x3c, 0x01, 0xbc, 0x3d, 0x68, 0x9f, 0x26, 0xbd,
  0x28, 0x8f, 0xb9, 0x3d, 0xeb, 0x03, 0xba, 0xbd, 0x22, 0x55, 0x30, 0xbb,
  0xc3, 0xd7, 0xdd, 0xbd, 0xd9, 0x40, 0xc4, 0x3d, 0xff, 0x9d, 0x84, 0x3d,
  0xf2, 0x85, 0xf8, 0x3d, 0xe7, 0x93, 0xbe, 0xbc, 0x19, 0x76, 0x84, 0x3c,
  0xa1, 0x36, 0xe1, 0x3c, 0x65, 0x34, 0xe5, 0x3d, 0x04, 0x67, 0x49, 0xbc,
  0xee, 0x7e, 0x69, 0x3c, 0x5a, 0xcc, 0x61, 0x3d, 0xc2, 0xa7, 0x44, 0x3e,
  0xdb, 0xeb, 0x59, 0x3d, 0x30, 0x9a, 0xa5, 0xbd, 0x69, 0x65, 0xa2, 0x3d,
  0x52, 0xc5, 0x3f, 0xbd, 0xec, 0x7a, 0xd5, 0xbc, 0xf8, 0x6f, 0x6a, 0x3e,
  0xf7, 0xe5, 0x45, 0xbc, 0x6f, 0x21, 0x27, 0xbe, 0xc8, 0x3c, 0x2c, 0x3e,
  0x95, 0x25, 0x5c, 0x3c, 0x04, 0xcc, 0xbf, 0xbd, 0x15, 0x50, 0x96, 0xbd,
  0x07, 0x6f, 0x34, 0xbd, 0x06, 0xf1, 0x27, 0xbd, 0xe5, 0x23, 0xc5, 0x3d,
  0x33, 0x0b, 0xc3, 0xbc, 0x77, 0x52, 0xe2, 0x3d, 0x6e, 0xd1, 0x76, 0xbd,
  0x4f, 0x26, 0xb8, 0xbd, 0xac, 0xae, 0x8d, 0x3b, 0x74, 0x1c, 0x16, 0x3d,
  0xa7, 0x81, 0x2e, 0xbe, 0x08, 0x1c, 0xa8, 0x3c, 0xb7, 0x86, 0xc9, 0x3b,
  0x0f, 0xd0, 0x53, 0xbd, 0xa8, 0x6a, 0x0b, 0x3d, 0x42, 0x6a, 0x54, 0x3b,
  0x95, 0xb1, 0x39, 0xbe, 0x92, 0x0f, 0x3e, 0xbd, 0xc9, 0xef, 0x79, 0x3d,
  0x77, 0xb3, 0x6d, 0xbd, 0x8e, 0x74, 0x06, 0xbe, 0x59, 0xc8, 0x02, 0x3e,
  0x03, 0x95, 0xa0, 0xbd, 0xe1, 0xbb, 0xb2, 0xbc, 0x0b, 0x96, 0x54, 0x3d,
  0x50, 0xa2, 0xe4, 0x3b, 0xda, 0x4e, 0x65, 0x3c, 0x64, 0x2c, 0x71, 0x3d,
  0x72, 0x01, 0x30, 0xbd, 0x40, 0x1d, 0xb5, 0xbc, 0x0d, 0x65, 0xd5, 0xbd,
  0xf1, 0xe0, 0x32, 0x3d, 0xbb, 0xbc, 0x9d, 0x3c, 0x5d, 0x43, 0x44, 0x3d,
  0x36, 0xcf, 0xb7, 0xbd, 0x7d, 0xca, 0x26, 0xbd, 0xfc, 0x4f, 0x75, 0xbc,
  0x00, 0x7b, 0x7f, 0xbc, 0x6d, 0x24, 0xff, 0xbc, 0x48, 0xc3, 0xa3, 0x3d,
  0xa6, 0xd4, 0x23, 0xbd, 0x91, 0x0e, 0x87, 0xbd, 0xad, 0xf9, 0x6b, 0x3c,
  0x4f, 0x3b, 0xcd, 0xbd, 0xae, 0x02, 0xff, 0x3c, 0x5a, 0x20, 0x5d, 0xbd,
  0xe8, 0x0f, 0xe1, 0xbd, 0x72, 0x35, 0x10, 0x3e, 0x84, 0x1c, 0x61, 0x3d,
  0xe6, 0xf4, 0x7f, 0xbd, 0x21, 0x93, 0xa1, 0xbd, 0x03, 0xb1, 0x7e, 0xbc,
  0x0f, 0xa2, 0x1e, 0xbd, 0xa2, 0x76, 0x95, 0x3b, 0xc3, 0xf0, 0x8e, 0xbd,
  0xda, 0xd2, 0x7a, 0x3b, 0x17, 0xe4, 0x44, 0x3c, 0xee, 0x87, 0x1e, 0x3d,
  0xfe, 0x0f, 0x9d, 0xbd, 0x70, 0x5b, 0x5a, 0xbd, 0xf7, 0x89, 0xcf, 0xbd,
  0x0b, 0x79, 0x18, 0xbe, 0x87, 0xe7, 0x7d, 0x3c, 0x6a, 0xf6, 0x9a, 0x3c,
  0x3e, 0xc5, 0xf1, 0xbd, 0xb0, 0x27, 0xf3, 0x3c, 0xdb, 0x77, 0x90, 0x3d,
  0xfa, 0x4d, 0x29, 0x3d, 0x28, 0x80, 0x8b, 0x3d, 0x27, 0xc1, 0x64, 0xbb,
  0x4c, 0xf3, 0xac, 0x3d, 0x78, 0x0b, 0x98, 0xbd, 0x4d, 0xd6, 0x62, 0x3d,
  0xde, 0x24, 0x18, 0xbe, 0xcb, 0x05, 0x33, 0x3c, 0x09, 0x23, 0x2a, 0xbc,
  0x4d, 0xcb, 0x55, 0x3d, 0x8f, 0xf7, 0x11, 0xbd, 0x32, 0xd9, 0x0c, 0xbd,
  0xac, 0xe6, 0x22, 0xbe, 0xf0, 0x23, 0x7f, 0x3d, 0x7e, 0x93, 0x99, 0x3c,
  0xa3, 0x00, 0x93, 0x3c, 0xef, 0x01, 0x05, 0xbd, 0x89, 0x8b, 0x09, 0x3d,
  0x5d, 0xc9, 0x8d, 0xbd, 0x01, 0x4b, 0x7e, 0xbd, 0x1d, 0xd2, 0xe8, 0x3d,
  0xa8, 0xd2, 0xe6, 0x3c, 0x96, 0xb1, 0x72, 0xbb, 0xa9, 0x7b, 0xec, 0xbc,
  0xa0, 0xca, 0x90, 0xbd, 0xf1, 0xc4, 0x93, 0xbd, 0x46, 0x7f, 0x5f, 0xbd,
  0x84, 0xc3, 0x2d, 0xbd, 0xc5, 0x6e, 0x94, 0x3d, 0x59, 0xe3, 0xe8, 0xbd,
  0x0e, 0x99, 0xd9, 0xbd, 0x85, 0x86, 0xcc, 0xbc, 0x02, 0x5c, 0x7b, 0x3c,
  0x73, 0xe3, 0x53, 0xbd, 0x82, 0x34, 0x1d, 0xbd, 0x72, 0x3a, 0x55, 0xbd,
  0xf5, 0x33, 0x98, 0xbd, 0x48, 0xb4, 0xc4, 0xbc, 0xc5, 0xce, 0x8f, 0x3d,
  0x96, 0x98, 0xb0, 0xbd, 0xae, 0xe0, 0x9a, 0x3d, 0xd8, 0x47, 0x0c, 0x3d,
  0x12, 0xb1, 0x80, 0xbd, 0x64, 0x4b, 0xab, 0x3c, 0xcc, 0xf5, 0x0e, 0xbc,
  0x68, 0x87, 0x40, 0xbe, 0xb8, 0x7e, 0x59, 0x3b, 0xeb, 0x88, 0x51, 0xbc,
  0xd2, 0xc3, 0x0f, 0xbe, 0xa2, 0x3f, 0xe2, 0xbd, 0x15, 0x65, 0xb7, 0x3b,
  0xa0, 0x4d, 0xbe, 0xbd, 0xa4, 0x40, 0x8d, 0xbd, 0x68, 0x5e, 0x00, 0xbd,
  0x69, 0xa8, 0xe0, 0xbb, 0xb5, 0x0b, 0xbb, 0xbd, 0xa4, 0xd3, 0xa5, 0x3d,
  0x96, 0xfa, 0x38, 0xbe, 0x18, 0x0c, 0x3a, 0xbd, 0x98, 0x4e, 0x55, 0xbd,
  0xef, 0xc7, 0x36, 0xbc, 0x20, 0xf4, 0xac, 0xbd, 0xff, 0xb8, 0x85, 0x3d,
  0x1f, 0xab, 0x44, 0xbe, 0x82, 0x56, 0x83, 0x3c, 0x80, 0xc7, 0x12, 0xbd,
  0x0f, 0xdc, 0x4c, 0xbd, 0xe6, 0x08, 0x8d, 0xbd, 0xa6, 0x5b, 0x14, 0x3b,
  0xda, 0xdf, 0x12, 0xbe, 0xc3, 0x9c, 0x5a, 0xbd, 0x14, 0xa2, 0x9b, 0x3d,
  0xab, 0x7b, 0x51, 0xbc, 0x88, 0x3a, 0xc9, 0xbd, 0x94, 0x88, 0x0e, 0xbd,
  0x1c, 0x17, 0x7b, 0xbe, 0xca, 0xff, 0x0c, 0x3d, 0xe0, 0xe1, 0x86, 0x3d,
  0x3e, 0x6e, 0xb4, 0xbd, 0x0b, 0x9a, 0x95, 0x3d, 0x58, 0xab, 0xb4, 0xbd,
  0x7e, 0x02, 0x46, 0xbe, 0xbb, 0xa4, 0xaa, 0xbd, 0xd0, 0x18, 0xc5, 0x3c,
  0x2f, 0xd3, 0x07, 0x3d, 0x4c, 0x2e, 0x82, 0xbb, 0x04, 0xa1, 0x2d, 0x3d,
  0x96, 0x28, 0x3c, 0xbe, 0x72, 0xcb, 0xf5, 0xbc, 0xed, 0xdf, 0x57, 0xbc,
  0xa4, 0x63, 0x70, 0xbd, 0x18, 0x3a, 0xa5, 0xbc, 0x20, 0xe8, 0x9e, 0x3c,
  0x84, 0xa4, 0x84, 0xbd, 0xb6, 0xb4, 0xee, 0xbd, 0x83, 0xb4, 0x0c, 0xbe,
  0x8f, 0xdc, 0xde, 0x3c, 0xa9, 0x92, 0x85, 0x3d, 0x29, 0xc1, 0xce, 0x3a,
  0x2e, 0xeb, 0x22, 0xbe, 0xa5, 0xf0, 0x0c, 0xbe, 0xda, 0xa2, 0xe1, 0x3c,
  0xef, 0x3f, 0x86, 0xbd, 0x98, 0x22, 0xef, 0x3b, 0x01, 0x18, 0xe8, 0xbc,
  0x54, 0x23, 0x5e, 0xbe, 0x05, 0xd0, 0xb5, 0x3c, 0xf2, 0x40, 0x59, 0xbc,
  0xe1, 0x29, 0x30, 0x3d, 0x0e, 0xec, 0xf1, 0xbd, 0xe7, 0x6f, 0x62, 0xbc,
  0x69, 0x46, 0x79, 0xbe, 0xbc, 0xf5, 0x44, 0xbd, 0xaa, 0x0d, 0x8f, 0xbd,
  0x6e, 0xa0, 0xf6, 0x3d, 0xb0, 0x15, 0x0a, 0x3c, 0x54, 0x78, 0xfc, 0x3b,
  0x72, 0xf8, 0x54, 0xbe, 0x58, 0x3f, 0xa6, 0xbd, 0x0b, 0x0a, 0x72, 0x3b,
  0x02, 0xd3, 0x4c, 0x3d, 0xb0, 0x54, 0x0a, 0x3e, 0x6e, 0xf9, 0x21, 0x3b,
  0xb5, 0xcf, 0xb0, 0xbd, 0x4d, 0xdc, 0x06, 0xbd, 0xc9, 0x79, 0x18, 0x3e,
  0xc9, 0x12, 0x70, 0x3d, 0x30, 0x3c, 0xa4, 0x3d, 0xff, 0x39, 0x01, 0xbd,
  0x86, 0xcf, 0x19, 0x3e, 0x09, 0x33, 0x1c, 0xbe, 0xef, 0x8e, 0x01, 0xbd,
  0x18, 0xb0, 0xb0, 0xbd, 0x14, 0xb8, 0x8a, 0xbd, 0x44, 0x41, 0x0c, 0xbd,
  0x04, 0xc0, 0x23, 0x3e, 0x8d, 0x00, 0x26, 0xbe, 0x65, 0x18, 0xef, 0x3c,
  0xe0, 0x0e, 0xaa, 0x3c, 0x9a, 0x79, 0x4d, 0xbd, 0x4b, 0x36, 0x03, 0x3c,
  0x07, 0x4a, 0x1f, 0x3e, 0x19, 0xd4, 0x91, 0xbd, 0x2d, 0xdc, 0xdd, 0x3d,
  0x9b, 0xe5, 0x2a, 0x3c, 0x7c, 0xe4, 0x8f, 0xbc, 0x86, 0x9c, 0x79, 0x3d,
  0xd9, 0x91, 0x30, 0x3c, 0x49, 0x4c, 0x95, 0xbd, 0xd7, 0xe9, 0x2f, 0x3e,
  0x20, 0x25, 0x69, 0x3d, 0x06, 0x77, 0xd6, 0xbc, 0x6b, 0xfd, 0xce, 0x3c,
  0x54, 0xb7, 0x82, 0xbd, 0xa0, 0x23, 0x9b, 0xbd, 0x6b, 0x93, 0x0c, 0xbd,
  0x19, 0x63, 0x00, 0xbe, 0xeb, 0xdb, 0xca, 0xbd, 0x6f, 0xe7, 0x9d, 0xbd,
  0x99, 0x45, 0xdc, 0x3c, 0x20, 0x7b, 0x49, 0xbb, 0x6e, 0x4f, 0xf2, 0xbc,
  0x1e, 0xda, 0x22, 0xbc, 0xe9, 0xbf, 0x61, 0xbe, 0x52, 0x49, 0x1d, 0xbe,
  0xe7, 0x8f, 0x79, 0x3d, 0xb4, 0xb0, 0xa6, 0xbd, 0x96, 0x43, 0x00, 0xbd,
  0xaa, 0x27, 0x82, 0xbd, 0x1c, 0xcf, 0x55, 0xbe, 0xe9, 0xea, 0x26, 0xbe,
  0xb7, 0x77, 0xae, 0xbd, 0x2e, 0x6d, 0x2f, 0xbd, 0xad, 0xc1, 0xd5, 0xbd,
  0x0e, 0xa9, 0x53, 0x3b, 0xe9, 0x07, 0x57, 0xbe, 0x9a, 0x6b, 0xc2, 0xbd,
  0xc3, 0x7b, 0x81, 0x3d, 0x4f, 0x89, 0x22, 0x3d, 0x6b, 0x02, 0xd4, 0xbd,
  0x5a, 0xaa, 0x2a, 0xbc, 0xea, 0xd4, 0xab, 0xbd, 0x12, 0x11, 0xbb, 0x3d,
  0xa3, 0x9f, 0xa7, 0x3d, 0xa5, 0x9c, 0x1b, 0x3b, 0xee, 0x46, 0xd1, 0xbd,
  0xc0, 0xd8, 0x48, 0x3d, 0xc2, 0x24, 0x12, 0xbe, 0x95, 0x7f, 0x38, 0x3d,
  0xef, 0xe4, 0x7f, 0xbd, 0x62, 0x14, 0x9f, 0x3d, 0x31, 0x3c, 0x07, 0xbe,
  0x1d, 0xe3, 0x0e, 0xbd, 0x17, 0x4d, 0x3f, 0xbd, 0xd7, 0x30, 0xea, 0x3b,
  0xa3, 0x17, 0x72, 0x3c, 0xca, 0x9a, 0x2b, 0x3d, 0xed, 0x91, 0xb1, 0x3d,
  0x48, 0x15, 0x91, 0x3c, 0x2e, 0x67, 0x8d, 0x3d, 0x9e, 0x70, 0x5c, 0x3e,
  0x89, 0x05, 0xf3, 0x3c, 0xf0, 0x56, 0xc0, 0xbc, 0x67, 0x89, 0x53, 0xbd,
  0x6d, 0x54, 0xad, 0xbd, 0x5c, 0x6c, 0x96, 0xbd, 0x95, 0xf1, 0x78, 0x3b,
  0xe8, 0xf3, 0x8f, 0x3c, 0xbf, 0x6c, 0x08, 0x3e, 0xa7, 0x6c, 0x3c, 0x3d,
  0x4c, 0x18, 0xc8, 0x3d, 0xc0, 0xb3, 0x89, 0x3d, 0x87, 0x64, 0xb9, 0x3d,
  0x5e, 0x94, 0xb4, 0xbd, 0x3a, 0xeb, 0xe3, 0x3d, 0xca, 0xe6, 0xec, 0xbc,
  0xd4, 0x33, 0x07, 0x3e, 0xb0, 0x4f, 0xc4, 0x3d, 0xbb, 0xa8, 0xdf, 0xbc,
  0x7c, 0x3d, 0x2b, 0x3d, 0x0b, 0xfd, 0xf3, 0x3c, 0x7d, 0x5c, 0x14, 0xbe,
  0xe7, 0xb0, 0x98, 0xbc, 0x28, 0xb1, 0xe1, 0x3d, 0xfb, 0x28, 0x47, 0x3d,
  0x2e, 0x66, 0xa5, 0x3d, 0xa9, 0x33, 0x3c, 0x3d, 0x62, 0x5e, 0xca, 0xbd,
  0x70, 0x66, 0xc3, 0x3c, 0x0d, 0x20, 0x87, 0x3e, 0x9a, 0xd2, 0x0a, 0x3d,
  0xa8, 0x70, 0x13, 0x3e, 0x40, 0xe8, 0x30, 0x3c, 0x60, 0xe3, 0xca, 0xbd,
  0xeb, 0x57, 0x17, 0xbe, 0x91, 0xd8, 0x74, 0x3e, 0x00, 0x6d, 0x49, 0x3d,
  0x69, 0x85, 0xe2, 0x3d, 0x38, 0xac, 0xfe, 0x3c, 0xf9, 0xf6, 0x4b, 0xbd,
  0x24, 0xe7, 0xbe, 0xbd, 0x4b, 0x52, 0x6c, 0x3e, 0x42, 0x83, 0x92, 0x3c,
  0x37, 0x96, 0x06, 0x3e, 0x8b, 0x50, 0xc4, 0x3c, 0xbe, 0xe1, 0x8c, 0xbd,
  0xc8, 0x3a, 0x3f, 0xbe, 0x14, 0x10, 0x81, 0x3e, 0xa2, 0x7f, 0x8f, 0xbd,
  0x12, 0x08, 0xb9, 0x3d, 0x77, 0xb5, 0x2c, 0xbd, 0x42, 0xdf, 0x1f, 0xbd,
  0x54, 0x6f, 0x0b, 0xbe, 0x33, 0x9f, 0x68, 0x3d, 0x66, 0x70, 0x5a, 0x3d,
  0x78, 0x0e, 0x71, 0x3d, 0x05, 0xb9, 0x37, 0x3d, 0x0e, 0x27, 0xba, 0x3d,
  0x92, 0xc5, 0xcb, 0xbd, 0x6a, 0x30, 0xd4, 0x3d, 0x79, 0xd2, 0x0e, 0xbd,
  0xe5, 0x31, 0x02, 0x3e, 0x81, 0xfd, 0x83, 0xbd, 0x8e, 0xa9, 0x94, 0xbc,
  0x5b, 0xad, 0x2d, 0xbd, 0xb9, 0x34, 0xff, 0xbc, 0xa5, 0x9e, 0x3a, 0xbd,
  0x48, 0xa1, 0x95, 0xbc, 0x31, 0x2d, 0x1f, 0xbe, 0x38, 0xe2, 0x8f, 0x3d,
  0x42, 0x1e, 0x2a, 0x3d, 0xab, 0xf7, 0x79, 0xbd, 0x93, 0xf9, 0x56, 0x3c,
  0x6d, 0x2b, 0x57, 0x3d, 0xa8, 0x81, 0x36, 0xbd, 0x4c, 0x4b, 0x98, 0x3b,
  0xa1, 0x08, 0x53, 0x3d, 0x63, 0xce, 0xb6, 0xbd, 0xcf, 0xca, 0xa7, 0x3c,
  0xac, 0x94, 0x86, 0x3d, 0x38, 0xb2, 0x1b, 0x3c, 0x10, 0x74, 0x92, 0x3d,
  0x3c, 0xe9, 0x58, 0xbd, 0x5f, 0x6f, 0x8f, 0xbd, 0x09, 0x08, 0xf7, 0x3c,
  0x43, 0x1a, 0xd8, 0xbb, 0xbd, 0x4c, 0x2c, 0x3d, 0xe5, 0xb5, 0xe9, 0x3c,
  0x15, 0x0c, 0xaa, 0xbc, 0xab, 0x37, 0x23, 0xbe, 0xcd, 0x51, 0x01, 0xbe,
  0xba, 0xa1, 0xe1, 0xbd, 0x4f, 0x60, 0xdd, 0x3a, 0xde, 0x06, 0x8b, 0xbd,
  0x55, 0x4d, 0xc5, 0xbd, 0x28, 0xe9, 0x27, 0xbe, 0x3c, 0x0d, 0x3c, 0xbd,
  0x7c, 0xe6, 0xf2, 0x3c, 0x80, 0x24, 0x82, 0x3d, 0x83, 0x9e, 0x82, 0x3d,
  0x5b, 0xeb, 0x62, 0x3c, 0x90, 0x9e, 0x8f, 0xbe, 0xa3, 0x58, 0x74, 0x3d,
  0x9b, 0x20, 0x06, 0xbe, 0x4a, 0x51, 0x54, 0xbd, 0x8f, 0x9d, 0xc5, 0x3c,
  0x8a, 0x78, 0x0f, 0x3d, 0x4b, 0xe9, 0xf1, 0xbd, 0x2f, 0x65, 0x19, 0x3d,
  0xdf, 0x5e, 0x16, 0xbe, 0xb9, 0x2c, 0x12, 0xbb, 0x2d, 0x73, 0x76, 0xbc,
  0xea, 0x21, 0xf4, 0x3b, 0x84, 0x17, 0xb1, 0xbd, 0xfe, 0xf9, 0x35, 0x3c,
  0x72, 0xe9, 0x07, 0xbd, 0xea, 0x62, 0x3d, 0xbc, 0x4b, 0x47, 0x14, 0xbd,
  0x3c, 0x94, 0x2b, 0xbc, 0xf7, 0xf6, 0x15, 0xbe, 0xb6, 0xae, 0x00, 0xbe,
  0x9a, 0xed, 0x11, 0xbe, 0x88, 0xab, 0xa7, 0xbd, 0x57, 0x86, 0x13, 0xbe,
  0xaa, 0xd2, 0x8c, 0xbb, 0x17, 0x33, 0x0e, 0xbe, 0xf4, 0xcd, 0x6f, 0x3d,
  0x0b, 0x3e, 0x93, 0xbd, 0x08, 0x6d, 0x92, 0x3d, 0x94, 0xa5, 0xf7, 0xbd,
  0x77, 0x9e, 0xb5, 0x3d, 0xa4, 0xc9, 0xd0, 0xbc, 0x86, 0x60, 0x9e, 0xbd,
  0x7d, 0xb8, 0xfe, 0xbd, 0x62, 0x7c, 0x1d, 0x3e, 0x9e, 0x6c, 0x9b, 0xbd,
  0x61, 0xba, 0xb1, 0xbd, 0xc4, 0xf9, 0xf5, 0x3d, 0x9c, 0x7c, 0xa0, 0xbc,
  0xb5, 0x6c, 0x3f, 0xbd, 0xe7, 0x7b, 0xd4, 0x3d, 0x35, 0x10, 0x35, 0xbd,
  0x44, 0x0f, 0xb0, 0xbd, 0x46, 0xf0, 0x71, 0x3d, 0x40, 0xf1, 0x10, 0x3c,
  0xc7, 0xc9, 0xed, 0xbc, 0x05, 0xfc, 0xaa, 0x3b, 0xff, 0x0b, 0xc1, 0xbd,
  0x79, 0xba, 0x0b, 0xbe, 0xcb, 0x66, 0xa9, 0xbd, 0xfe, 0xfb, 0xbd, 0x3c,
  0x2b, 0xed, 0x1e, 0x3d, 0xe2, 0x12, 0x9f, 0x3d, 0x23, 0xfd, 0x96, 0xbd,
  0x64, 0x0d, 0x3b, 0xbd, 0xbb, 0xd3, 0xe6, 0x3d, 0xd8, 0x94, 0xab, 0x3d,
  0xdc, 0x93, 0x52, 0xbc, 0x2b, 0xa3, 0x8c, 0xbd, 0x47, 0x22, 0xfe, 0xb9,
  0x31, 0x30, 0x03, 0xbd, 0xac, 0x72, 0x01, 0x3e, 0xad, 0x8c, 0xfa, 0xba,
  0x58, 0xe4, 0xa6, 0x3d, 0xf8, 0xea, 0x33, 0x39, 0xa8, 0xf1, 0x08, 0x3e,
  0xbb, 0xdb, 0x8a, 0xbd, 0x81, 0xbc, 0x13, 0x3e, 0x13, 0xa1, 0x4d, 0x3e,
  0x8a, 0xa1, 0x04, 0x3e, 0x8b, 0x92, 0x40, 0x3c, 0x41, 0xf0, 0xe1, 0xbc,
  0x31, 0x0f, 0xec, 0xbc, 0x57, 0x50, 0x0f, 0x3e, 0x92, 0xc1, 0xe9, 0x3c,
  0x18, 0xec, 0x52, 0x3d, 0xf2, 0x44, 0x0f, 0xbc, 0x39, 0x93, 0xa0, 0xbd,
  0xd1, 0x15, 0x81, 0x3d, 0xb2, 0x3a, 0xf7, 0x3d, 0xc6, 0x27, 0xff, 0x3d,
  0x37, 0x6e, 0x12, 0xbd, 0xa3, 0x0a, 0x14, 0x3e, 0x5f, 0x15, 0xee, 0xbd,
  0xe9, 0xd8, 0x06, 0x3d, 0xaf, 0x50, 0x6c, 0xbb, 0xf8, 0xe9, 0xf9, 0x3d,
  0x5c, 0x22, 0x81, 0xbd, 0xf8, 0x94, 0xd2, 0xbd, 0x8d, 0x0a, 0xdf, 0xbc,
  0xf3, 0xb1, 0x0b, 0x3d, 0x1a, 0xb9, 0x6f, 0xbd, 0x47, 0x5a, 0x8c, 0xbd,
  0xe1, 0x84, 0x8f, 0xbd, 0x91, 0xbd, 0x8a, 0x3c, 0x7e, 0xc0, 0x47, 0xbc,
  0xc5, 0x32, 0x32, 0x3e, 0x4a, 0x3b, 0x21, 0xbe, 0x03, 0x0f, 0xde, 0x3c,
  0x96, 0xec, 0x71, 0x3d, 0x60, 0x64, 0xa1, 0x3d, 0x0b, 0x5f, 0xd4, 0x3c,
  0xdb, 0xc3, 0x98, 0x3d, 0xac, 0x1c, 0x31, 0xbe, 0x26, 0xe9, 0xc6, 0x3c,
  0xaa, 0x45, 0x79, 0xbd, 0xf2, 0x3c, 0xcf, 0xbc, 0x47, 0x27, 0xd3, 0xbd,
  0xae, 0xf3, 0xf9, 0x3d, 0x96, 0xbf, 0x47, 0xbd, 0x1b, 0xc0, 0xb0, 0xbd,
  0x27, 0xf8, 0xbd, 0x3d, 0x10, 0x50, 0xa6, 0x3c, 0xb5, 0x4f, 0xd4, 0xbd,
  0x91, 0x6e, 0x5f, 0x3e, 0xc4, 0x51, 0x47, 0xbe, 0xed, 0x51, 0x31, 0x3d,
  0x57, 0x54, 0xf6, 0xbc, 0xea, 0x34, 0x06, 0x3e, 0x3a, 0x12, 0x0c, 0xbd,
  0xe2, 0xd1, 0xc3, 0x3d, 0x80, 0x3b, 0x17, 0xbe, 0x4b, 0x0c, 0x09, 0xbc,
  0xa0, 0x72, 0xc5, 0xbd, 0x8f, 0x7f, 0xf1, 0x3d, 0x1f, 0xfd, 0xb2, 0x3d,
  0xa3, 0x1f, 0x2c, 0x3e, 0xb2, 0x50, 0x6a, 0xbc, 0xc4, 0x07, 0x49, 0x39,
  0xaf, 0x09, 0xc7, 0xbd, 0x8e, 0xfc, 0xa4, 0x3d, 0x13, 0x2e, 0xae, 0x3a,
  0xa7, 0x35, 0x56, 0xbb, 0x71, 0x2b, 0xb3, 0x3d, 0x6b, 0x13, 0x83, 0xbd,
  0xdf, 0x88, 0x2b, 0x3d, 0x35, 0x9f, 0x3e, 0x3d, 0xa3, 0x67, 0x0f, 0x3d,
  0xe4, 0x4f, 0x3a, 0x3d, 0x4c, 0x79, 0x17, 0x3e, 0xcb, 0x16, 0x0c, 0xbe,
  0xe5, 0xd3, 0xce, 0xbd, 0x61, 0x1e, 0x12, 0x3e, 0x8d, 0x35, 0xd4, 0x3d,
  0x69, 0x71, 0x11, 0x3e, 0xaf, 0xe0, 0xca, 0x3d, 0xa6, 0x04, 0x00, 0x3d,
  0x65, 0x30, 0xb4, 0xbd, 0x02, 0xa6, 0x05, 0xbd, 0xbb, 0x40, 0x74, 0xbd,
  0xf8, 0xf4, 0xac, 0x3d, 0x39, 0x65, 0x0b, 0x3e, 0x0e, 0xe7, 0xb0, 0x3d,
  0xc6, 0xfe, 0x2e, 0x3d, 0xe2, 0x95, 0xbb, 0x3a, 0x87, 0x05, 0xb3, 0x3d,
  0x51, 0xb8, 0xe3, 0xbc, 0x42, 0x27, 0x07, 0x3c, 0xd5, 0xc3, 0xc8, 0x3c,
  0xe7, 0xa3, 0x2d, 0x3c, 0x2e, 0x66, 0xb6, 0x3d, 0xee, 0x7e, 0x8c, 0xbc,
  0xa5, 0xf2, 0xf0, 0x3a, 0x93, 0x5d, 0x17, 0x3e, 0xb7, 0x6e, 0xc2, 0xbc,
  0xa6, 0xce, 0x93, 0x3d, 0xd1, 0x41, 0x9f, 0xbb, 0xf3, 0x73, 0x09, 0xbe,
  0x90, 0xd2, 0xa5, 0x3d, 0x46, 0x18, 0xcb, 0x3d, 0xbb, 0x9e, 0x2a, 0xbe,
  0x05, 0xd6, 0x22, 0x3e, 0xc2, 0xaf, 0x24, 0x3e, 0x2c, 0x15, 0x23, 0x3d,
  0x79, 0x82, 0xb3, 0x3d, 0x40, 0xd9, 0x1b, 0x3e, 0xe8, 0xf3, 0x9d, 0xbd,
  0x84, 0xe1, 0x67, 0x3e, 0x6d, 0x9a, 0x38, 0xbc, 0x37, 0xc0, 0xe6, 0x3c,
  0xa7, 0x83, 0xc0, 0x3d, 0x6a, 0xd0, 0xa0, 0x3c, 0xb3, 0x3c, 0x55, 0xbe,
  0xeb, 0xbd, 0xe8, 0xbc, 0x7e, 0xc1, 0xf7, 0xbd, 0x95, 0xc4, 0x1a, 0x3d,
  0xbd, 0x9d, 0x4b, 0xbd, 0x60, 0xcb, 0x15, 0x3e, 0xa1, 0x51, 0x02, 0xbe,
  0x78, 0xd8, 0x44, 0xbb, 0xc6, 0xc3, 0x05, 0xbd, 0x71, 0xfd, 0x5b, 0x3d,
  0x10, 0xf4, 0x07, 0x3e, 0x00, 0x78, 0x92, 0x3d, 0x6d, 0x09, 0xf8, 0xbd,
  0x76, 0x54, 0x27, 0x3e, 0x93, 0x67, 0x63, 0xbc, 0x0d, 0xea, 0x15, 0xbd,
  0x3b, 0x37, 0xf2, 0x3d, 0x41, 0x83, 0xf4, 0xbd, 0x06, 0x66, 0x05, 0xbe,
  0x94, 0x3c, 0xee, 0x3d, 0xeb, 0x4a, 0x58, 0xbd, 0x34, 0xcb, 0xc8, 0x3d,
  0x4a, 0x2d, 0x9e, 0x3d, 0x95, 0xf9, 0x8a, 0xbd, 0x5e, 0xde, 0xdd, 0xbd,
  0x06, 0x1a, 0x5c, 0xbc, 0xad, 0x89, 0x3c, 0xbe, 0x27, 0x20, 0xd8, 0x3d,
  0x7e, 0x29, 0xeb, 0xbc, 0xcb, 0x55, 0x2a, 0xbe, 0x07, 0x57, 0x19, 0x3d,
  0xb9, 0xea, 0x10, 0x3d, 0x78, 0x46, 0x53, 0xbe, 0xeb, 0x41, 0x9f, 0xbc,
  0x67, 0xa6, 0x27, 0xbd, 0x3f, 0xae, 0xdc, 0xbd, 0x35, 0x79, 0x8c, 0xbd,
  0x5c, 0x60, 0x15, 0xbe, 0xfa, 0x76, 0xc2, 0xbd, 0x14, 0xec, 0xe5, 0x3c,
  0x40, 0x7e, 0xf4, 0xbd, 0xc4, 0x4e, 0x8a, 0xbd, 0xcb, 0x3c, 0x14, 0xbd,
  0x81, 0xd6, 0x14, 0xbd, 0x7b, 0x60, 0x3e, 0xbe, 0xb5, 0x41, 0x9f, 0xbb,
  0x3f, 0x28, 0x1b, 0xbe, 0x84, 0x02, 0x09, 0xbd, 0xdc, 0x5c, 0xa9, 0xbc,
  0x40, 0x0a, 0xce, 0xbc, 0x1d, 0x13, 0xfe, 0xbb, 0x9c, 0x8c, 0xb3, 0xbd,
  0x66, 0x0b, 0x10, 0xbe, 0x8f, 0x9d, 0x9d, 0xbd, 0x9e, 0xae, 0xb1, 0x3d,
  0xd0, 0x69, 0xb5, 0xbd, 0x1e, 0xbf, 0xb9, 0xbd, 0x5f, 0x56, 0x61, 0x3d,
  0xae, 0xa2, 0x13, 0xbd, 0x4e, 0x05, 0x1a, 0x3d, 0xe9, 0xa2, 0xfd, 0x3d,
  0xe6, 0x48, 0x68, 0xbe, 0x26, 0x10, 0x20, 0xbe, 0xce, 0x5d, 0xd0, 0x3d,
  0xfd, 0x6d, 0x26, 0x3d, 0xed, 0x39, 0xc8, 0x3c, 0x58, 0x81, 0xc1, 0x3d,
  0xbd, 0xbd, 0x01, 0xbd, 0x0d, 0x72, 0x19, 0xbc, 0x2b, 0x95, 0x98, 0xbd,
  0xc7, 0xfd, 0x98, 0x3d, 0xae, 0x54, 0x91, 0x3d, 0x83, 0x0e, 0xe1, 0xbc,
  0x5e, 0xb7, 0xd2, 0x3d, 0xde, 0x24, 0x07, 0xbe, 0xa6, 0x11, 0x77, 0xbd,
  0x3f, 0x12, 0xbf, 0x3d, 0x47, 0xa1, 0xd8, 0x3d, 0xd3, 0x74, 0xea, 0xbd,
  0x3a, 0x6f, 0x16, 0x3d, 0xb9, 0xc1, 0xc7, 0xbd, 0x59, 0xd1, 0x03, 0xbd,
  0x36, 0x6f, 0x1b, 0xbd, 0xd5, 0x20, 0x0c, 0x3e, 0xff, 0xfa, 0x20, 0xbd,
  0x29, 0xfc, 0x6e, 0xbd, 0x34, 0x53, 0x3a, 0xbd, 0x46, 0x19, 0xe2, 0xbc,
  0x1f, 0xf4, 0xce, 0xbd, 0xc1, 0x4f, 0xc2, 0x3b, 0xce, 0xd6, 0x44, 0xbd,
  0x12, 0xfd, 0x60, 0xbd, 0xf6, 0xc3, 0x9a, 0xbd, 0xe2, 0x4c, 0xa4, 0xbd,
  0x33, 0xd9, 0xdd, 0xbc, 0x3b, 0xb7, 0x7f, 0x3e, 0xa9, 0xc9, 0xd7, 0xbb,
  0xee, 0xf1, 0x26, 0xbd, 0x55, 0x6c, 0xfc, 0xbc, 0xb5, 0xda, 0x7e, 0xbd,
  0x2d, 0x7d, 0x78, 0xbd, 0xc8, 0xc8, 0x53, 0x3e, 0x29, 0xe6, 0xf5, 0x3d,
  0x52, 0x40, 0x41, 0xbd, 0x1a, 0x18, 0x17, 0xbe, 0xa3, 0xe7, 0x85, 0x3d,
  0x70, 0xca, 0x9b, 0xbd, 0x8f, 0x33, 0xe7, 0x3d, 0x17, 0x05, 0x1a, 0x3e,
  0x93, 0x69, 0x0e, 0x3e, 0x07, 0xc6, 0xc2, 0xbc, 0xcc, 0xbc, 0xe1, 0xbc,
  0xb9, 0x66, 0xfa, 0xbd, 0x3f, 0xd1, 0x39, 0x3e, 0xdd, 0xde, 0xa2, 0x3d,
  0x79, 0xcc, 0xe9, 0x3d, 0x14, 0x86, 0x29, 0xbd, 0x25, 0x34, 0xdf, 0x3c,
  0xeb, 0x98, 0x17, 0xbe, 0x33, 0xbe, 0xe8, 0x3d, 0x54, 0xbb, 0xb7, 0x3d,
  0x20, 0x2d, 0xff, 0x3d, 0x76, 0x91, 0xb7, 0x3c, 0x6b, 0x1b, 0x53, 0x3d,
  0xe8, 0x59, 0x17, 0xbe, 0xd0, 0x73, 0x05, 0x3e, 0xcc, 0x00, 0xcb, 0x3d,
  0x32, 0x37, 0x44, 0x3d, 0x7e, 0xd2, 0x8c, 0x3c, 0x66, 0xc0, 0xab, 0x3d,
  0x41, 0x05, 0x0f, 0xbd, 0x28, 0xec, 0x4b, 0xbc, 0x58, 0x0f, 0x1b, 0x3e,
  0xda, 0x49, 0x26, 0x3d, 0xd0, 0x87, 0x93, 0xbd, 0xfb, 0x13, 0x64, 0x3d,
  0x8d, 0x76, 0xbe, 0xbc, 0xac, 0x15, 0xb0, 0xbd, 0x94, 0xf8, 0x25, 0x3e,
  0x70, 0xb3, 0xfb, 0xbd, 0x80, 0x5d, 0x71, 0x3b, 0x87, 0xa9, 0x26, 0x3e,
  0x28, 0x10, 0x1c, 0xbd, 0xe8, 0x3e, 0x65, 0xbe, 0x7b, 0xb8, 0x79, 0x3d,
  0xe3, 0x6a, 0x13, 0xbd, 0x9b, 0x54, 0xa8, 0xbd, 0x96, 0x32, 0xa1, 0xbc,
  0xd7, 0x30, 0xa1, 0x3b, 0x24, 0xf4, 0x0b, 0xbe, 0xe9, 0x83, 0x30, 0x3d,
  0x73, 0xe3, 0x1d, 0xbd, 0xd3, 0x04, 0x03, 0x3e, 0x6c, 0xac, 0x92, 0x3d,
  0x46, 0x21, 0x00, 0x3e, 0xdc, 0x14, 0x1f, 0xbe, 0xd2, 0xcf, 0xbd, 0x3d,
  0x4f, 0x85, 0x7e, 0xbd, 0x47, 0xe1, 0xf8, 0x3c, 0xf4, 0x66, 0xe3, 0x3d,
  0x1c, 0xfc, 0x19, 0x3e, 0x67, 0xa8, 0xa7, 0xbe, 0xef, 0x82, 0xe6, 0xbc,
  0x6a, 0x71, 0x75, 0xbd, 0xf1, 0xb0, 0x0b, 0x3e, 0x20, 0xba, 0xf4, 0x3d,
  0xa3, 0xec, 0x7e, 0x3e, 0x2c, 0x73, 0x99, 0xbe, 0xc7, 0x09, 0x03, 0xbe,
  0x82, 0xdb, 0x98, 0xbd, 0x21, 0xbf, 0x52, 0x3e, 0x59, 0x82, 0xc3, 0x3d,
  0x01, 0xe0, 0x44, 0x3e, 0x75, 0x2b, 0x98, 0xbe, 0x54, 0xf1, 0x82, 0xbd,
  0x48, 0x29, 0x05, 0xbe, 0x27, 0x99, 0x31, 0x3e, 0x90, 0x00, 0xb8, 0xbb,
  0x2e, 0xc3, 0x9e, 0x3e, 0x2e, 0x38, 0x46, 0xbe, 0x9f, 0x11, 0x97, 0xbd,
  0xaa, 0x53, 0x52, 0xbe, 0x8c, 0xb2, 0x72, 0x3e, 0xd6, 0x4c, 0x41, 0xbc,
  0xcb, 0xd6, 0xb9, 0xbd, 0xce, 0x03, 0x21, 0xbe, 0x1d, 0x01, 0x94, 0xbd,
  0x13, 0x35, 0x40, 0xbe, 0xdc, 0x19, 0xfd, 0x3d, 0x62, 0x8b, 0xff, 0x3d,
  0xcb, 0xf8, 0x2a, 0x3d, 0x04, 0xa9, 0x3a, 0x3c, 0xe4, 0xa9, 0xf2, 0xbd,
  0x89, 0xaa, 0xd2, 0xbd, 0xa9, 0x38, 0x1a, 0x3b, 0xc2, 0x47, 0xe5, 0xbc,
  0xa2, 0xd9, 0xce, 0xbd, 0x01, 0x07, 0x1f, 0x3d, 0xab, 0x77, 0xab, 0xbd,
  0xc3, 0x77, 0xac, 0xbd, 0x5c, 0xae, 0xd4, 0xbb, 0xff, 0xd7, 0x5a, 0xbb,
  0x06, 0xd6, 0x2e, 0xbe, 0xf5, 0x4b, 0x06, 0x3e, 0xac, 0x92, 0x4c, 0xbb,
  0xcb, 0xb1, 0xfb, 0x3d, 0xcb, 0x8a, 0x22, 0x3e, 0xff, 0x57, 0x28, 0x3d,
  0x1f, 0x40, 0x03, 0xbe, 0x81, 0xc5, 0x96, 0x3e, 0x4c, 0xc1, 0xb2, 0xbc,
  0x3d, 0xf7, 0x5e, 0x3d, 0x15, 0x62, 0x2e, 0x3d, 0xa1, 0x7e, 0x3b, 0x3d,
  0x9d, 0xe1, 0x9b, 0xbd, 0x43, 0xee, 0x85, 0x3e, 0x4c, 0x31, 0x06, 0xbe,
  0x55, 0x94, 0xb4, 0xbb, 0x08, 0x30, 0xdb, 0x3c, 0xc8, 0xe4, 0x1a, 0x3e,
  0xd9, 0x53, 0x47, 0x3d, 0x18, 0x9a, 0xe0, 0x3e, 0xcb, 0xa5, 0x98, 0xbd,
  0x6f, 0x62, 0x40, 0x3e, 0x39, 0x41, 0xc9, 0xbb, 0x8b, 0x6a, 0xf9, 0x3c,
  0x0d, 0xb8, 0xd3, 0x3c, 0x69, 0x47, 0xba, 0x3e, 0x64, 0x9f, 0x1f, 0xbd,
  0x0e, 0xc2, 0x3f, 0x3e, 0x91, 0xc7, 0x30, 0x3d, 0x13, 0xab, 0x99, 0xba,
  0x0a, 0x45, 0x6d, 0x3d, 0xd5, 0x80, 0xc9, 0x3e, 0xb9, 0x41, 0x07, 0xbd,
  0x40, 0x64, 0x0c, 0x3e, 0x69, 0x68, 0x76, 0xbd, 0xb0, 0x3f, 0x46, 0x3d,
  0xee, 0xf5, 0x15, 0x3c, 0x63, 0x49, 0x94, 0xbe, 0xc6, 0x67, 0x18, 0xbe,
  0x4b, 0x1f, 0x34, 0x3c, 0x8a, 0x69, 0x79, 0xbe, 0x5c, 0xa4, 0x69, 0xbd,
  0xae, 0x2f, 0x42, 0x3e, 0x09, 0xa2, 0x85, 0xbe, 0xa1, 0x97, 0x8a, 0xbd,
  0x5f, 0xa3, 0x8b, 0x3d, 0x10, 0xbf, 0x11, 0xbd, 0x28, 0x4c, 0x06, 0x3e,
  0xf4, 0x93, 0x87, 0x3d, 0xad, 0x30, 0x8d, 0xbe, 0x84, 0x37, 0xfb, 0xbb,
  0xb2, 0x84, 0x5a, 0xbb, 0x5f, 0x0a, 0x3b, 0xbe, 0x84, 0x2e, 0xdd, 0x3d,
  0xec, 0xb5, 0x9b, 0x3d, 0x75, 0x1e, 0x45, 0xbe, 0x5b, 0x87, 0xc1, 0x3d,
  0x35, 0x14, 0x6a, 0x3d, 0x40, 0x79, 0x5b, 0xbd, 0x94, 0x7c, 0xcf, 0xbc,
  0x2f, 0xdd, 0x1c, 0xbd, 0x46, 0xe0, 0x4d, 0xbe, 0xf4, 0x4a, 0x60, 0xbd,
  0xd6, 0x88, 0x8f, 0x3b, 0x6f, 0xf2, 0xc9, 0x3c, 0x1f, 0xc7, 0x08, 0xbc,
  0x1b, 0xa3, 0x16, 0xbd, 0xb6, 0x7c, 0x7d, 0xbe, 0x80, 0x1b, 0x01, 0x3d,
  0x7f, 0xd1, 0x32, 0x3d, 0xa9, 0x55, 0x22, 0x3c, 0x14, 0xf2, 0x94, 0xbd,
  0xda, 0x3a, 0x69, 0xbd, 0x6f, 0x3a, 0x2d, 0xbe, 0xdd, 0x02, 0xf7, 0x3c,
  0x23, 0x29, 0xac, 0xbc, 0x76, 0xf7, 0x41, 0x3c, 0x70, 0x73, 0xf1, 0x3d,
  0x8e, 0x9f, 0x19, 0xbe, 0x69, 0x2d, 0x6b, 0xbe, 0xcb, 0x46, 0xc4, 0x3c,
  0x93, 0x78, 0xaf, 0xbc, 0xe7, 0xf7, 0x06, 0xba, 0x5e, 0x28, 0x17, 0x3e,
  0x2a, 0x61, 0xd3, 0x3c, 0xf1, 0x08, 0x9e, 0xbd, 0x19, 0x45, 0x77, 0x3c,
  0xde, 0x07, 0x92, 0x3d, 0xa6, 0x5f, 0x9c, 0x3c, 0x68, 0x9f, 0x57, 0x3e,
  0x30, 0x15, 0x08, 0x3c, 0x30, 0x80, 0xed, 0xbc, 0x10, 0x62, 0x29, 0xbc,
  0xb5, 0x1a, 0xd1, 0x3d, 0x3f, 0xb3, 0x73, 0xbd, 0x13, 0x6a, 0x0f, 0x3e,
  0x0d, 0x33, 0xe0, 0xbd, 0x25, 0xd2, 0x4b, 0xbd, 0x53, 0xe8, 0xdb, 0xbd,
  0x66, 0xff, 0xad, 0x3d, 0x03, 0xb9, 0x0f, 0x3d, 0x0f, 0xe3, 0x1c, 0x3e,
  0xd9, 0x3e, 0x00, 0x3d, 0x8b, 0x10, 0xd4, 0xbd, 0x7c, 0x9f, 0xe0, 0xb8,
  0x4c, 0x69, 0x38, 0xbd, 0xd1, 0xf1, 0x06, 0x3e, 0x9a, 0x4a, 0xc2, 0x3d,
  0xd9, 0xb1, 0x65, 0x3d, 0x29, 0xc8, 0x3b, 0xbc, 0x4e, 0x81, 0x84, 0x3d,
  0xb5, 0xf8, 0x80, 0x3d, 0x88, 0x8f, 0x65, 0x3c, 0x0a, 0xbb, 0x1a, 0x3e,
  0x83, 0x7d, 0x06, 0xbe, 0x0e, 0x6b, 0xa7, 0x3b, 0xae, 0x96, 0xf1, 0xbc,
  0x68, 0xa1, 0xd9, 0xbd, 0x5c, 0x3f, 0x86, 0xbd, 0x44, 0x2f, 0x10, 0x3e,
  0xfe, 0x6c, 0x0d, 0xbd, 0x60, 0x30, 0x13, 0x3e, 0x1f, 0xbf, 0xa5, 0xbd,
  0x00, 0x49, 0x1b, 0xbe, 0x51, 0x0d, 0xdc, 0x3c, 0xc6, 0xba, 0x31, 0x3e,
  0x91, 0x35, 0x36, 0xbd, 0x92, 0x64, 0x71, 0x3d, 0x8a, 0x62, 0xa2, 0x3c,
  0xfc, 0x4b, 0x7b, 0xbe, 0xb3, 0xd7, 0x5e, 0xbd, 0x84, 0x24, 0x2e, 0x3e,
  0x91, 0xc4, 0xa0, 0x3d, 0xa5, 0xf7, 0x81, 0x3d, 0x92, 0x50, 0xde, 0x3c,
  0x91, 0x48, 0x79, 0xbe, 0xdb, 0x63, 0xbf, 0xbd, 0x20, 0x1d, 0xb3, 0x3d,
  0x24, 0xed, 0x56, 0x3d, 0x5e, 0xff, 0x85, 0x3e, 0x42, 0x06, 0x03, 0x3d,
  0xb1, 0x83, 0x7b, 0xbe, 0x04, 0x42, 0x82, 0xbc, 0x03, 0xe6, 0x60, 0x3e,
  0x9c, 0x28, 0x54, 0xbd, 0xb7, 0x4d, 0x48, 0x3e, 0x0b, 0xcb, 0x83, 0xbd,
  0x2f, 0xab, 0xdd, 0xbd, 0x6b, 0xb8, 0x43, 0xbc, 0x38, 0x0a, 0xb8, 0x3d,
  0x1c, 0x6b, 0x54, 0x3c, 0xcb, 0xd0, 0x84, 0x3d, 0xcc, 0x02, 0x61, 0xbc,
  0x22, 0x8e, 0x1b, 0xbe, 0xbc, 0xca, 0xcb, 0xbc, 0x99, 0xb2, 0x24, 0x3e,
  0x48, 0xc3, 0x83, 0xbd, 0xfc, 0x8a, 0x25, 0x3d, 0x7e, 0x0b, 0x7f, 0x3d,
  0xfb, 0x1a, 0x87, 0xbe, 0xf9, 0x17, 0xf2, 0xbd, 0x53, 0xa1, 0x9f, 0x3d,
  0x96, 0xf1, 0xf4, 0xbc, 0xa1, 0xab, 0x9a, 0x3d, 0xfe, 0x85, 0x98, 0xbd,
  0xc9, 0x21, 0x0e, 0xbe, 0x0c, 0xa0, 0x43, 0xbc, 0x5c, 0xd4, 0xc3, 0x3d,
  0x35, 0xbb, 0xcd, 0xbd, 0xff, 0x0e, 0x81, 0xbd, 0xf7, 0x80, 0x8c, 0xbc,
  0xa8, 0x59, 0x16, 0xbe, 0x24, 0xe4, 0x95, 0xbd, 0x63, 0x4a, 0x19, 0x3e,
  0x07, 0xc1, 0x6f, 0x3d, 0x5e, 0x47, 0xce, 0x3b, 0x62, 0x63, 0x7e, 0xbd,
  0x38, 0xf7, 0x4e, 0xbe, 0xb1, 0x8c, 0x7d, 0xbd, 0x0e, 0xbd, 0xdb, 0x3d,
  0x1f, 0x95, 0x9a, 0xbd, 0x1b, 0x6d, 0x8d, 0xbd, 0x1c, 0x75, 0x1d, 0xbe,
  0xb6, 0x81, 0x09, 0xbe, 0xce, 0x6c, 0x92, 0xbc, 0x19, 0x61, 0x4d, 0x3e,
  0xae, 0x70, 0xbf, 0xbd, 0xc6, 0xcf, 0xa2, 0xbd, 0xd6, 0xf1, 0x4b, 0x3c,
  0x53, 0x0d, 0x26, 0xbe, 0x94, 0xae, 0x95, 0xbd, 0x54, 0x4f, 0x08, 0x3e,
  0xbd, 0xaa, 0x34, 0x3d, 0x13, 0x62, 0x02, 0xbe, 0x4a, 0x08, 0x30, 0x3c,
  0x08, 0x9d, 0x15, 0xbe, 0x4b, 0x89, 0x23, 0x3d, 0x1b, 0xb5, 0x38, 0x3c,
  0x98, 0x95, 0xfb, 0xbc, 0xcc, 0x06, 0xf5, 0x3a, 0x8f, 0x8b, 0xb8, 0x3c,
  0xe4, 0x21, 0xd1, 0xba, 0xd4, 0x9b, 0xfc, 0x3d, 0x5b, 0xb1, 0x79, 0x3d,
  0xa0, 0x80, 0x19, 0xbd, 0x4e, 0xd5, 0x1e, 0xbe, 0x55, 0x82, 0xa3, 0xbd,
  0x8b, 0xe9, 0x0f, 0xbe, 0x50, 0x0f, 0xf0, 0x3d, 0xe8, 0xf2, 0x8c, 0x3d,
  0x32, 0x46, 0xa3, 0xbd, 0x9a, 0xa0, 0xd0, 0x3b, 0x15, 0x0e, 0xb5, 0xbd,
  0xbb, 0x79, 0xb0, 0xbd, 0x64, 0x07, 0x0c, 0xbd, 0x96, 0x64, 0x1c, 0x3d,
  0x7e, 0x68, 0x6d, 0xbd, 0x12, 0xbb, 0xbe, 0xbd, 0x86, 0x8f, 0x1f, 0xbd,
  0x8c, 0xb6, 0xea, 0xbd, 0xbf, 0xd6, 0xb6, 0x3d, 0xe4, 0x00, 0x99, 0x3c,
  0x80, 0x52, 0xcd, 0x3d, 0xe0, 0xb5, 0xd1, 0xbd, 0x92, 0xc3, 0xec, 0x3c,
  0xc6, 0xd0, 0xc0, 0xbd, 0x86, 0x7c, 0x68, 0xbd, 0xfb, 0x58, 0x5c, 0xbd,
  0xf9, 0x21, 0xe2, 0xbc, 0xa2, 0xe7, 0x25, 0xbe, 0x56, 0xba, 0xaa, 0xbd,
  0x36, 0x24, 0x0f, 0xbe, 0x17, 0x12, 0x83, 0xbd, 0xf6, 0xc6, 0x91, 0xbe,
  0xc6, 0xa3, 0x16, 0xbc, 0xc9, 0x9c, 0xa5, 0x39, 0xbb, 0x2f, 0xe4, 0xbd,
  0xf8, 0xcf, 0x6b, 0xbd, 0x4d, 0x35, 0x89, 0xbd, 0x34, 0xd4, 0x7c, 0xbe,
  0xe1, 0x2b, 0xaf, 0xbd, 0x9c, 0x91, 0x0d, 0x3d, 0xbe, 0xd0, 0x4a, 0xbd,
  0x88, 0x80, 0x01, 0xbe, 0xcf, 0x64, 0x7c, 0xbd, 0xc8, 0x87, 0x43, 0xbe,
  0x48, 0x67, 0xa9, 0xbd, 0xd9, 0x0d, 0x1d, 0xbe, 0xf8, 0x20, 0xf4, 0x3d,
  0xbd, 0x5a, 0x8b, 0xbd, 0x62, 0xc7, 0x18, 0xbe, 0x6c, 0x15, 0x3f, 0xbe,
  0xab, 0x98, 0xe1, 0x3d, 0x86, 0xf8, 0x6c, 0xbd, 0x94, 0xd0, 0xb1, 0xbc,
  0x42, 0xba, 0x45, 0x3e, 0x68, 0xfa, 0x92, 0xbd, 0x02, 0x95, 0x86, 0xbe,
  0xa3, 0x61, 0xb8, 0xbb, 0x61, 0xec, 0xe7, 0xbd, 0xe9, 0x3c, 0xd2, 0x3d,
  0xe7, 0x22, 0x2b, 0x3e, 0x22, 0xaf, 0xef, 0x3d, 0xbc, 0x1b, 0x14, 0xbe,
  0x7a, 0x91, 0x75, 0x3c, 0xf8, 0x7b, 0x8e, 0xbd, 0x1d, 0xa7, 0x80, 0xbb,
  0x10, 0xd2, 0x6f, 0x3a, 0x96, 0x6c, 0x2d, 0xbc, 0x2b, 0xc4, 0x28, 0xbe,
  0x26, 0x9d, 0xd4, 0x3c, 0x4c, 0xae, 0x5c, 0x3d, 0x68, 0x0a, 0x4b, 0xbd,
  0xd2, 0x4a, 0xf5, 0x3c, 0x45, 0x98, 0x23, 0xbd, 0xf7, 0xf0, 0x6b, 0xbd,
  0x5d, 0x20, 0x2d, 0x3d, 0xa9, 0x1b, 0xb5, 0x3d, 0xc3, 0xac, 0x14, 0xbd,
  0x4f, 0xe8, 0x6e, 0x3e, 0x8e, 0x56, 0x22, 0x3e, 0x45, 0x41, 0x94, 0x3a,
  0xba, 0x72, 0xc3, 0x3b, 0x4c, 0xa9, 0x0e, 0x3e, 0x49, 0x23, 0x9f, 0xba,
  0x7f, 0xbe, 0x1b, 0x3e, 0x58, 0x5c, 0xea, 0x3d, 0xcc, 0x71, 0x15, 0xbd,
  0xa1, 0xad, 0x40, 0xbd, 0x26, 0xd5, 0xb0, 0x3d, 0x98, 0x3c, 0x3c, 0x3d,
  0x10, 0x58, 0x00, 0x3e, 0x55, 0x35, 0xa3, 0x3c, 0xe1, 0xca, 0xb7, 0xbc,
  0x13, 0x57, 0x22, 0x3d, 0xe5, 0x43, 0x77, 0x3d, 0xff, 0xb9, 0x70, 0xbc,
  0x2e, 0x0a, 0x8f, 0x3d, 0xa0, 0xbc, 0x79, 0x3d, 0xbd, 0xe7, 0x53, 0x3d,
  0x93, 0x40, 0x37, 0x3d, 0x44, 0xc0, 0xee, 0x3d, 0xc4, 0xd8, 0xc4, 0xbd,
  0x45, 0xe6, 0xe8, 0x3c, 0x8f, 0x3f, 0x94, 0x3d, 0x76, 0xe3, 0x5f, 0xbd,
  0xe4, 0x8e, 0xb1, 0x3c, 0xe9, 0x2f, 0xf3, 0x3d, 0x9c, 0x5a, 0xeb, 0x3c,
  0xe4, 0x82, 0x4f, 0x3c, 0x1c, 0x31, 0xed, 0x3c, 0xfa, 0xe8, 0xc6, 0x3c,
  0x3d, 0x6c, 0x3b, 0xbc, 0x94, 0xfd, 0xb3, 0x3d, 0x59, 0x03, 0x82, 0x3d,
  0xc4, 0x28, 0x8d, 0x3d, 0x37, 0x4e, 0xdb, 0x3d, 0x5e, 0x14, 0x7a, 0xbc,
  0x00, 0xda, 0x68, 0xbc, 0x09, 0x5d, 0x20, 0x3e, 0x35, 0x81, 0xf1, 0x3d,
  0x02, 0xf0, 0x23, 0x3d, 0x1c, 0x79, 0x17, 0x3e, 0xf8, 0xd7, 0x9e, 0x3c,
  0x8d, 0x00, 0x5e, 0x3d, 0xf8, 0x61, 0x7b, 0x3e, 0x0e, 0x0f, 0xba, 0x3c,
  0xff, 0xde, 0xce, 0x3d, 0x7d, 0x5e, 0xc4, 0xbc, 0x71, 0x67, 0x7e, 0xbc,
  0x6f, 0x2a, 0xcb, 0x3c, 0x15, 0x5b, 0x5b, 0x3e, 0x58, 0x14, 0xb8, 0x3d,
  0xf6, 0x8e, 0x96, 0x3d, 0xbc, 0x15, 0x1b, 0x3e, 0x7d, 0x12, 0x94, 0x3d,
  0x72, 0x5c, 0x31, 0x3d, 0x50, 0xe7, 0xa8, 0x3d, 0x81, 0x18, 0x9e, 0x3d,
  0xcb, 0x2e, 0x89, 0x3c, 0x79, 0x9f, 0xa4, 0x3d, 0x65, 0x52, 0xb5, 0xbc,
  0x85, 0xac, 0x9d, 0xbd, 0x5f, 0xeb, 0x29, 0x3e, 0xf7, 0xf0, 0x17, 0x3b,
  0xdd, 0xb5, 0x1b, 0x3e, 0x4d, 0x6c, 0x49, 0x3d, 0xc2, 0x71, 0x24, 0x3d,
  0xab, 0xf5, 0x24, 0x3d, 0xdc, 0x43, 0x61, 0x3c, 0x02, 0xa2, 0x1c, 0x3d,
  0x43, 0x08, 0x23, 0x3d, 0xea, 0x13, 0xe5, 0x3d, 0x4e, 0xdf, 0x13, 0x3e,
  0x8c, 0x18, 0x2c, 0x3d, 0x47, 0x18, 0x0f, 0x3e, 0x99, 0x6f, 0xab, 0x3d,
  0x1e, 0xac, 0x18, 0x3e, 0x67, 0x92, 0x12, 0xbd, 0x62, 0x27, 0x3c, 0xbc,
  0xa5, 0xb7, 0xc7, 0x3b, 0xef, 0x4c, 0xaa, 0xbd, 0xfc, 0x7c, 0x39, 0x3d,
  0xef, 0x9b, 0x34, 0x3d, 0xcb, 0xd6, 0x04, 0xbd, 0x63, 0xfb, 0x45, 0x3c,
  0x6e, 0xf3, 0x33, 0xbb, 0x73, 0xb3, 0xac, 0x3c, 0x52, 0x1f, 0x01, 0x3c,
  0xea, 0x6e, 0x3b, 0x3d, 0x00, 0x5b, 0x50, 0x3d, 0x1d, 0xb7, 0x9e, 0x3c,
  0x5f, 0x94, 0x8f, 0x3c, 0x49, 0xa0, 0x8d, 0x3d, 0xe9, 0x9a, 0xde, 0x3d,
  0x53, 0xcd, 0x13, 0x3e, 0x8e, 0xd1, 0xe9, 0xbd, 0x74, 0xa0, 0x3e, 0xbc,
  0x0a, 0xa5, 0xa1, 0x3d, 0x02, 0xec, 0x3d, 0xbd, 0xc4, 0x3c, 0x9b, 0x3d,
  0xfb, 0x39, 0xd2, 0x3a, 0xf5, 0xc6, 0xc8, 0x3c, 0x10, 0x79, 0x8f, 0xbd,
  0x38, 0x05, 0x79, 0x3c, 0x0f, 0xba, 0xeb, 0x3c, 0x03, 0x97, 0xaa, 0x3d,
  0x7e, 0xe3, 0xac, 0x3d, 0x23, 0x21, 0x8c, 0x3a, 0xd1, 0x2e, 0x84, 0xbd,
  0x57, 0xf5, 0x9a, 0x3d, 0xe2, 0xee, 0x19, 0xba, 0xb2, 0x7d, 0xa5, 0x3c,
  0xda, 0xdf, 0xd4, 0x3d, 0xc3, 0x61, 0xe2, 0xbc, 0x4a, 0x7b, 0x0f, 0xbe,
  0xb7, 0x64, 0xd3, 0x3c, 0x62, 0xb4, 0x5b, 0xbd, 0xec, 0x68, 0x7b, 0x3d,
  0xbf, 0xb7, 0x08, 0x3e, 0xf1, 0xb5, 0x94, 0x3b, 0x9d, 0x90, 0xc2, 0xbd,
  0x17, 0xcb, 0x51, 0x3d, 0xf9, 0xb3, 0xdd, 0xbd, 0x1d, 0xd8, 0xf9, 0xbc,
  0x1f, 0xac, 0xb9, 0x3d, 0x3e, 0x46, 0x86, 0x3d, 0xc7, 0xe2, 0x36, 0xbe,
  0x42, 0x6f, 0x28, 0x3a, 0x67, 0x5c, 0xcf, 0xbc, 0x46, 0x03, 0x83, 0x3d,
  0x62, 0x0a, 0xc8, 0x3c, 0x86, 0xfd, 0xd4, 0xb9, 0x64, 0xba, 0x40, 0xbe,
  0x57, 0x80, 0x74, 0x3d, 0x70, 0xd1, 0xab, 0xbd, 0x7f, 0x34, 0xda, 0x3d,
  0xca, 0x50, 0xb5, 0x3c, 0xea, 0x97, 0x0b, 0xbe, 0xe1, 0x3f, 0x92, 0xbe,
  0x19, 0x44, 0x8c, 0x3d, 0x7d, 0x30, 0x02, 0xbe, 0xa0, 0x99, 0x00, 0xbc,
  0xf9, 0xf9, 0x1b, 0x3e, 0x84, 0xfb, 0xd4, 0x3b, 0xfd, 0xec, 0x92, 0xbe,
  0xe1, 0x11, 0xf9, 0x3b, 0xe0, 0x77, 0x2b, 0x3d, 0x80, 0x11, 0xea, 0xbd,
  0x4b, 0xf8, 0x75, 0xbd, 0x88, 0x2d, 0xa4, 0xbd, 0x59, 0x80, 0x23, 0xbe,
  0x2e, 0x5b, 0x71, 0x3b, 0x5c, 0x00, 0x93, 0x3d, 0x36, 0x5d, 0x04, 0x3e,
  0x93, 0x8f, 0xac, 0xbd, 0xb5, 0xe9, 0xa1, 0xbd, 0x96, 0x10, 0x2f, 0xbe,
  0x6e, 0x9d, 0xd4, 0x3d, 0x3b, 0x32, 0x6f, 0xbd, 0x41, 0x07, 0x96, 0x3d,
  0x97, 0x29, 0x16, 0x3e, 0x85, 0xf7, 0x33, 0xbe, 0x73, 0xfc, 0x60, 0xbe,
  0xd2, 0xdf, 0x53, 0x3d, 0x0e, 0x3d, 0x02, 0xbd, 0xc2, 0xb2, 0x67, 0xbd,
  0x50, 0x14, 0xc7, 0x3d, 0x43, 0x0b, 0x8c, 0xbd, 0xe8, 0x84, 0x51, 0xbe,
  0x70, 0x4b, 0x4e, 0xbb, 0x75, 0x6d, 0xcf, 0x3d, 0x2c, 0x9f, 0x91, 0x3d,
  0x50, 0x46, 0x51, 0xbd, 0x58, 0x4a, 0x06, 0xbe, 0xe0, 0xc6, 0xea, 0xbd,
  0x51, 0xd5, 0xe8, 0x3d, 0xce, 0xb7, 0x6d, 0xbc, 0x54, 0x1d, 0x0b, 0x3e,
  0x89, 0x5d, 0xd6, 0x3d, 0xf0, 0xcd, 0x2a, 0xbe, 0xb2, 0x26, 0x0e, 0xbe,
  0xf0, 0x37, 0xfe, 0xb9, 0x06, 0x5b, 0x84, 0x3d, 0x84, 0x29, 0x1a, 0xbd,
  0x83, 0xaa, 0x12, 0xbc, 0xc0, 0xbb, 0x82, 0xbd, 0x6b, 0xfe, 0x27, 0xbe,
  0x5b, 0xbb, 0xb6, 0xbd, 0x1b, 0x22, 0xb3, 0x3d, 0x8b, 0x74, 0xfe, 0x3c,
  0x42, 0xee, 0xee, 0x3c, 0x33, 0xfc, 0x10, 0xbd, 0x1e, 0x42, 0x4b, 0xbe,
  0x91, 0x68, 0x47, 0x3d, 0x67, 0xde, 0x6a, 0xbd, 0xd3, 0x32, 0xeb, 0xbd,
  0xcd, 0x60, 0xa3, 0x3c, 0x76, 0xdc, 0x24, 0x3c, 0xfa, 0xfa, 0x4e, 0xbe,
  0xe8, 0x0e, 0x6a, 0xbd, 0x26, 0x7e, 0x36, 0xbc, 0x31, 0x66, 0xa9, 0x3d,
  0xb6, 0x08, 0x3a, 0xbb, 0x0d, 0x27, 0x99, 0x3c, 0x17, 0x8f, 0x5b, 0xbe,
  0x62, 0xb5, 0x2e, 0xbd, 0x4b, 0x43, 0x89, 0x3b, 0x18, 0x41, 0x82, 0xbd,
  0x4c, 0xf7, 0x57, 0x3d, 0x69, 0x59, 0x2e, 0xba, 0x65, 0x1b, 0x06, 0xbe,
  0x6b, 0xac, 0x28, 0xbd, 0x5f, 0x54, 0xd5, 0x3d, 0x8e, 0xfa, 0x97, 0xbd,
  0x2d, 0x57, 0x4a, 0x3d, 0x3a, 0x7d, 0x89, 0x3c, 0xe1, 0x70, 0xaa, 0xbd,
  0x24, 0xac, 0x88, 0xbd, 0xa2, 0xdb, 0x94, 0x3d, 0x15, 0x02, 0x07, 0xbd,
  0x19, 0x8c, 0x14, 0xbd, 0x4a, 0x38, 0x14, 0x3d, 0xfd, 0xd8, 0x01, 0xbe,
  0xb7, 0x48, 0x6e, 0x3c, 0xdb, 0x79, 0x05, 0x3e, 0x2b, 0x85, 0x1a, 0x3e,
  0x3e, 0xeb, 0x57, 0xbd, 0x09, 0xcc, 0x62, 0x3b, 0xbf, 0x9f, 0x88, 0xbd,
  0x0a, 0x5e, 0xac, 0x3c, 0x68, 0xc0, 0xeb, 0x3c, 0xdc, 0x73, 0x92, 0x3d,
  0xd7, 0xdb, 0x8a, 0x3d, 0x45, 0x69, 0x47, 0x3d, 0xde, 0xe4, 0x81, 0xbd,
  0xaa, 0x1f, 0x65, 0x3c, 0xfa, 0x16, 0x71, 0x3d, 0x1c, 0x78, 0xfe, 0x3c,
  0x2b, 0x80, 0x4f, 0x3d, 0x2f, 0x4a, 0x85, 0x3d, 0x2c, 0x3c, 0xe9, 0xbd,
  0xbe, 0x69, 0x01, 0xbe, 0x70, 0xd5, 0xa4, 0x3c, 0x5c, 0x9d, 0x86, 0xbd,
  0xfc, 0x95, 0x07, 0x3d, 0x2f, 0xe9, 0xe6, 0x3c, 0xb1, 0xf3, 0xd7, 0xbd,
  0x57, 0xcc, 0xa4, 0xbc, 0x7b, 0x86, 0xeb, 0xb9, 0xef, 0xc8, 0x75, 0x3c,
  0x5f, 0x86, 0xb9, 0x3c, 0xe3, 0x12, 0x4e, 0x3d, 0x71, 0x3e, 0xf2, 0xbc,
  0x86, 0x69, 0x30, 0xbd, 0xb8, 0x98, 0x0e, 0xba, 0x44, 0x25, 0x2f, 0xbe,
  0x96, 0xaa, 0x98, 0xbd, 0x4a, 0xee, 0xf8, 0x3d, 0x18, 0xdf, 0x0f, 0xbd,
  0xaa, 0x6d, 0xab, 0x3c, 0x72, 0x63, 0x37, 0x3d, 0x81, 0xdd, 0x27, 0x3d,
  0xec, 0xbd, 0x9c, 0x3d, 0xd1, 0x8a, 0xa9, 0x3c, 0x91, 0x9d, 0xc1, 0xbd,
  0xe3, 0xe7, 0xdb, 0x3d, 0xb7, 0xe4, 0xc8, 0xbb, 0xb5, 0xc3, 0x68, 0x3c,
  0xdf, 0xb2, 0x4d, 0x3d, 0x90, 0x06, 0xf7, 0x3c, 0x97, 0x34, 0x4d, 0x3d,
  0x5c, 0xd5, 0xb5, 0x3a, 0xdd, 0x72, 0xc9, 0x3c, 0xb1, 0x8b, 0x1f, 0x3d,
  0x7c, 0xde, 0xf1, 0x3c, 0xd9, 0xcd, 0x62, 0xbd, 0x27, 0x36, 0xe3, 0x3c,
  0x0a, 0x07, 0x02, 0x3e, 0x19, 0xab, 0x00, 0x3e, 0x29, 0xce, 0xa0, 0x3d,
  0x52, 0xb6, 0xb5, 0xbc, 0x94, 0x2f, 0x54, 0x3c, 0xe7, 0x2e, 0x05, 0x3c,
  0xb6, 0xce, 0xb9, 0x3d, 0x53, 0x08, 0xae, 0x3d, 0x8b, 0x8f, 0x1e, 0xbd,
  0x75, 0xf0, 0x11, 0x3d, 0x40, 0x90, 0x33, 0xbd, 0x07, 0xcf, 0x05, 0xbe,
  0x48, 0x40, 0xe4, 0x3d, 0x77, 0xe6, 0x7d, 0x3c, 0xc1, 0xa6, 0xef, 0xbd,
  0x42, 0xa0, 0xda, 0xbd, 0x2c, 0x4f, 0x89, 0xbd, 0x91, 0xe2, 0xd8, 0xbd,
  0x5a, 0x53, 0xfe, 0x3d, 0xc0, 0x76, 0x0d, 0x3e, 0x4b, 0x85, 0x15, 0x3b,
  0x68, 0x3a, 0x8d, 0xbd, 0x6e, 0x55, 0x93, 0x3d, 0x50, 0x06, 0x98, 0xbd,
  0x34, 0xcf, 0x18, 0x3e, 0x8c, 0xc3, 0x01, 0x3e, 0xe6, 0x78, 0x1a, 0xbc,
  0xf6, 0xf3, 0xb5, 0xbc, 0xbf, 0x3a, 0x81, 0x3d, 0x14, 0xaa, 0xeb, 0xbd,
  0x6a, 0x52, 0xca, 0x3c, 0x61, 0xa7, 0xb3, 0x3c, 0x6a, 0xa5, 0x46, 0xbd,
  0xe0, 0x58, 0x50, 0xbc, 0xf2, 0x21, 0x40, 0x3d, 0x0b, 0xb6, 0xa8, 0xbd,
  0x04, 0x4c, 0xb3, 0x3d, 0xfd, 0x15, 0x1f, 0x3e, 0xdd, 0x9e, 0x83, 0xbd,
  0x8d, 0x14, 0xc2, 0x3d, 0x01, 0x0b, 0x4a, 0x3d, 0xc3, 0x02, 0xac, 0xbd,
  0x7a, 0x9c, 0xad, 0x3d, 0xf2, 0x5b, 0xed, 0x3d, 0xa8, 0x21, 0x84, 0x3c,
  0x5e, 0xed, 0xaf, 0x3c, 0xad, 0x23, 0x02, 0x3e, 0x50, 0x92, 0x2c, 0xbe,
  0x26, 0xd7, 0xaa, 0xbc, 0x43, 0xa9, 0x51, 0x3e, 0x3f, 0x45, 0x0d, 0xbe,
  0x78, 0x28, 0x90, 0x3d, 0xd1, 0xbc, 0xa7, 0x3d, 0x83, 0xc5, 0x89, 0xbd,
  0x0f, 0x15, 0x25, 0xbd, 0x8c, 0x15, 0x50, 0x3e, 0x46, 0x19, 0x9e, 0x3d,
  0xc4, 0x0b, 0x40, 0xbc, 0x0e, 0xe0, 0xae, 0x3d, 0x50, 0x89, 0x23, 0xbe,
  0xa6, 0x2b, 0x90, 0x3d, 0x30, 0xf2, 0x2b, 0x3e, 0x6a, 0x75, 0x72, 0xbd,
  0x21, 0x5f, 0x20, 0x3e, 0x91, 0x43, 0x85, 0x3b, 0xfc, 0x0e, 0x50, 0xbe,
  0x4f, 0x5b, 0x91, 0xbd, 0x9c, 0x7c, 0xf5, 0x3d, 0x68, 0x9d, 0x48, 0xbd,
  0xb9, 0x63, 0xcd, 0xbc, 0x8c, 0xb6, 0x40, 0xbd, 0xf2, 0xcd, 0xb6, 0xbd,
  0xbd, 0xea, 0x24, 0x3c, 0x28, 0x68, 0x05, 0x3e, 0xe9, 0x48, 0x9d, 0xbc,
  0x47, 0x50, 0x43, 0x3d, 0x47, 0xfb, 0x21, 0x3e, 0x50, 0x21, 0xbe, 0xbd,
  0xf0, 0x16, 0xc8, 0x3c, 0x0e, 0xff, 0xff, 0xff, 0x04, 0x00, 0x00, 0x00,
  0x08, 0x00, 0x00, 0x00, 0xff, 0xff, 0xff, 0xff, 0x58, 0x02, 0x00, 0x00,
  0x22, 0xff, 0xff, 0xff, 0x04, 0x00, 0x00, 0x00, 0x10, 0x00, 0x00, 0x00,
  0x05, 0x0e, 0x10, 0xbc, 0x3a, 0x82, 0x6c, 0x3f, 0x27, 0x52, 0x5d, 0xbf,
  0x5d, 0xa6, 0xd1, 0x3f, 0x3e, 0xff, 0xff, 0xff, 0x04, 0x00, 0x00, 0x00,
  0x10, 0x00, 0x00, 0x00, 0x1a, 0x6a, 0x4f, 0xbf, 0x2e, 0x85, 0x18, 0xbf,
  0xe0, 0x7b, 0x44, 0x3f, 0x99, 0x88, 0x91, 0xbe, 0x5a, 0xff, 0xff, 0xff,
  0x04, 0x00, 0x00, 0x00, 0x10, 0x00, 0x00, 0x00, 0x51, 0xa5, 0x84, 0x3d,
  0x3d, 0xe2, 0x32, 0x3e, 0x55, 0x9b, 0xd1, 0x3d, 0x56, 0xa7, 0xe2, 0xbd,
  0x6c, 0xf9, 0xff, 0xff, 0x70, 0xf9, 0xff, 0xff, 0x0f, 0x00, 0x00, 0x00,
  0x4d, 0x4c, 0x49, 0x52, 0x20, 0x43, 0x6f, 0x6e, 0x76, 0x65, 0x72, 0x74,
  0x65, 0x64, 0x2e, 0x00, 0x01, 0x00, 0x00, 0x00, 0x14, 0x00, 0x00, 0x00,
  0x00, 0x00, 0x0e, 0x00, 0x18, 0x00, 0x14, 0x00, 0x10, 0x00, 0x0c, 0x00,
  0x08, 0x00, 0x04, 0x00, 0x0e, 0x00, 0x00, 0x00, 0x14, 0x00, 0x00, 0x00,
  0x1c, 0x00, 0x00, 0x00, 0x50, 0x01, 0x00, 0x00, 0x54, 0x01, 0x00, 0x00,
  0x58, 0x01, 0x00, 0x00, 0x04, 0x00, 0x00, 0x00, 0x6d, 0x61, 0x69, 0x6e,
  0x00, 0x00, 0x00, 0x00, 0x05, 0x00, 0x00, 0x00, 0x14, 0x01, 0x00, 0x00,
  0xc4, 0x00, 0x00, 0x00, 0x78, 0x00, 0x00, 0x00, 0x40, 0x00, 0x00, 0x00,
  0x04, 0x00, 0x00, 0x00, 0x5a, 0xff, 0xff, 0xff, 0x1c, 0x00, 0x00, 0x00,
  0x00, 0x00, 0x00, 0x09, 0x1c, 0x00, 0x00, 0x00, 0x20, 0x00, 0x00, 0x00,
  0x02, 0x00, 0x00, 0x00, 0x00, 0x00, 0x06, 0x00, 0x08, 0x00, 0x04, 0x00,
  0x06, 0x00, 0x00, 0x00, 0x00, 0x00, 0x80, 0x3f, 0x01, 0x00, 0x00, 0x00,
  0x0c, 0x00, 0x00, 0x00, 0x01, 0x00, 0x00, 0x00, 0x0b, 0x00, 0x00, 0x00,
  0x92, 0xff, 0xff, 0xff, 0x14, 0x00, 0x00, 0x00, 0x00, 0x00, 0x00, 0x08,
  0x10, 0x00, 0x00, 0x00, 0x14, 0x00, 0x00, 0x00, 0x01, 0x00, 0x00, 0x00,
  0x2c, 0xfa, 0xff, 0xff, 0x01, 0x00, 0x00, 0x00, 0x0b, 0x00, 0x00, 0x00,
  0x03, 0x00, 0x00, 0x00, 0x0a, 0x00, 0x00, 0x00, 0x07, 0x00, 0x00, 0x00,
  0x02, 0x00, 0x00, 0x00, 0xc6, 0xff, 0xff, 0xff, 0x14, 0x00, 0x00, 0x00,
  0x00, 0x00, 0x00, 0x08, 0x14, 0x00, 0x00, 0x00, 0x18, 0x00, 0x00, 0x00,
  0x01, 0x00, 0x00, 0x00, 0xb6, 0xff, 0xff, 0xff, 0x00, 0x00, 0x00, 0x01,
  0x01, 0x00, 0x00, 0x00, 0x0a, 0x00, 0x00, 0x00, 0x03, 0x00, 0x00, 0x00,
  0x09, 0x00, 0x00, 0x00, 0x06, 0x00, 0x00, 0x00, 0x03, 0x00, 0x00, 0x00,
  0x00, 0x00, 0x0e, 0x00, 0x1a, 0x00, 0x14, 0x00, 0x10, 0x00, 0x0c, 0x00,
  0x0b, 0x00, 0x04, 0x00, 0x0e, 0x00, 0x00, 0x00, 0x1c, 0x00, 0x00, 0x00,
  0x00, 0x00, 0x00, 0x08, 0x1c, 0x00, 0x00, 0x00, 0x20, 0x00, 0x00, 0x00,
  0x01, 0x00, 0x00, 0x00, 0x00, 0x00, 0x06, 0x00, 0x08, 0x00, 0x07, 0x00,
  0x06, 0x00, 0x00, 0x00, 0x00, 0x00, 0x00, 0x01, 0x01, 0x00, 0x00, 0x00,
  0x09, 0x00, 0x00, 0x00, 0x03, 0x00, 0x00, 0x00, 0x08, 0x00, 0x00, 0x00,
  0x05, 0x00, 0x00, 0x00, 0x01, 0x00, 0x00, 0x00, 0x00, 0x00, 0x0a, 0x00,
  0x0c, 0x00, 0x00, 0x00, 0x08, 0x00, 0x04, 0x00, 0x0a, 0x00, 0x00, 0x00,
  0x08, 0x00, 0x00, 0x00, 0x0c, 0x00, 0x00, 0x00, 0x01, 0x00, 0x00, 0x00,
  0x08, 0x00, 0x00, 0x00, 0x02, 0x00, 0x00, 0x00, 0x00, 0x00, 0x00, 0x00,
  0x04, 0x00, 0x00, 0x00, 0x01, 0x00, 0x00, 0x00, 0x0c, 0x00, 0x00, 0x00,
  0x01, 0x00, 0x00, 0x00, 0x00, 0x00, 0x00, 0x00, 0x0d, 0x00, 0x00, 0x00,
  0xc4, 0x04, 0x00, 0x00, 0x58, 0x04, 0x00, 0x00, 0xe8, 0x03, 0x00, 0x00,
  0x90, 0x03, 0x00, 0x00, 0x44, 0x03, 0x00, 0x00, 0xe4, 0x02, 0x00, 0x00,
  0x98, 0x02, 0x00, 0x00, 0x4c, 0x02, 0x00, 0x00, 0xf0, 0x01, 0x00, 0x00,
  0x68, 0x01, 0x00, 0x00, 0xd8, 0x00, 0x00, 0x00, 0x60, 0x00, 0x00, 0x00,
  0x04, 0x00, 0x00, 0x00, 0x86, 0xfb, 0xff, 0xff, 0x00, 0x00, 0x00, 0x01,
  0x14, 0x00, 0x00, 0x00, 0x1c, 0x00, 0x00, 0x00, 0x1c, 0x00, 0x00, 0x00,
  0x0d, 0x00, 0x00, 0x00, 0x34, 0x00, 0x00, 0x00, 0x02, 0x00, 0x00, 0x00,
  0xff, 0xff, 0xff, 0xff, 0x04, 0x00, 0x00, 0x00, 0x6c, 0xfb, 0xff, 0xff,
  0x19, 0x00, 0x00, 0x00, 0x53, 0x74, 0x61, 0x74, 0x65, 0x66, 0x75, 0x6c,
  0x50, 0x61, 0x72, 0x74, 0x69, 0x74, 0x69, 0x6f, 0x6e, 0x65, 0x64, 0x43,
  0x61, 0x6c, 0x6c, 0x3a, 0x30, 0x00, 0x00, 0x00, 0x02, 0x00, 0x00, 0x00,
  0x01, 0x00, 0x00, 0x00, 0x04, 0x00, 0x00, 0x00, 0xde, 0xfb, 0xff, 0xff,
  0x00, 0x00, 0x00, 0x01, 0x14, 0x00, 0x00, 0x00, 0x1c, 0x00, 0x00, 0x00,
  0x1c, 0x00, 0x00, 0x00, 0x0c, 0x00, 0x00, 0x00, 0x50, 0x00, 0x00, 0x00,
  0x02, 0x00, 0x00, 0x00, 0xff, 0xff, 0xff, 0xff, 0x04, 0x00, 0x00, 0x00,
  0xc4, 0xfb, 0xff, 0xff, 0x34, 0x00, 0x00, 0x00, 0x73, 0x65, 0x71, 0x75,
  0x65, 0x6e, 0x74, 0x69, 0x61, 0x6c, 0x2f, 0x64, 0x65, 0x6e, 0x73, 0x65,
  0x5f, 0x32, 0x2f, 0x4d, 0x61, 0x74, 0x4d, 0x75, 0x6c, 0x3b, 0x73, 0x65,
  0x71, 0x75, 0x65, 0x6e, 0x74, 0x69, 0x61, 0x6c, 0x2f, 0x64, 0x65, 0x6e,
  0x73, 0x65, 0x5f, 0x32, 0x2f, 0x42, 0x69, 0x61, 0x73, 0x41, 0x64, 0x64,
  0x00, 0x00, 0x00, 0x00, 0x02, 0x00, 0x00, 0x00, 0x01, 0x00, 0x00, 0x00,
  0x04, 0x00, 0x00, 0x00, 0x52, 0xfc, 0xff, 0xff, 0x00, 0x00, 0x00, 0x01,
  0x14, 0x00, 0x00, 0x00, 0x1c, 0x00, 0x00, 0x00, 0x1c, 0x00, 0x00, 0x00,
  0x0b, 0x00, 0x00, 0x00, 0x68, 0x00, 0x00, 0x00, 0x02, 0x00, 0x00, 0x00,
  0xff, 0xff, 0xff, 0xff, 0x04, 0x00, 0x00, 0x00, 0x38, 0xfc, 0xff, 0xff,
  0x4c, 0x00, 0x00, 0x00, 0x73, 0x65, 0x71, 0x75, 0x65, 0x6e, 0x74, 0x69,
  0x61, 0x6c, 0x2f, 0x64, 0x65, 0x6e, 0x73, 0x65, 0x5f, 0x31, 0x2f, 0x4d,
  0x61, 0x74, 0x4d, 0x75, 0x6c, 0x3b, 0x73, 0x65, 0x71, 0x75, 0x65, 0x6e,
  0x74, 0x69, 0x61, 0x6c, 0x2f, 0x64, 0x65, 0x6e, 0x73, 0x65, 0x5f, 0x31,
  0x2f, 0x52, 0x65, 0x6c, 0x75, 0x3b, 0x73, 0x65, 0x71, 0x75, 0x65, 0x6e,
  0x74, 0x69, 0x61, 0x6c, 0x2f, 0x64, 0x65, 0x6e, 0x73, 0x65, 0x5f, 0x31,
  0x2f, 0x42, 0x69, 0x61, 0x73, 0x41, 0x64, 0x64, 0x00, 0x00, 0x00, 0x00,
  0x02, 0x00, 0x00, 0x00, 0x01, 0x00, 0x00, 0x00, 0x04, 0x00, 0x00, 0x00,
  0xde, 0xfc, 0xff, 0xff, 0x00, 0x00, 0x00, 0x01, 0x14, 0x00, 0x00, 0x00,
  0x1c, 0x00, 0x00, 0x00, 0x1c, 0x00, 0x00, 0x00, 0x0a, 0x00, 0x00, 0x00,
  0x60, 0x00, 0x00, 0x00, 0x02, 0x00, 0x00, 0x00, 0xff, 0xff, 0xff, 0xff,
  0x04, 0x00, 0x00, 0x00, 0xc4, 0xfc, 0xff, 0xff, 0x46, 0x00, 0x00, 0x00,
  0x73, 0x65, 0x71, 0x75, 0x65, 0x6e, 0x74, 0x69, 0x61, 0x6c, 0x2f, 0x64,
  0x65, 0x6e, 0x73, 0x65, 0x2f, 0x4d, 0x61, 0x74, 0x4d, 0x75, 0x6c, 0x3b,
  0x73, 0x65, 0x71, 0x75, 0x65, 0x6e, 0x74, 0x69, 0x61, 0x6c, 0x2f, 0x64,
  0x65, 0x6e, 0x73, 0x65, 0x2f, 0x52, 0x65, 0x6c, 0x75, 0x3b, 0x73, 0x65,
  0x71, 0x75, 0x65, 0x6e, 0x74, 0x69, 0x61, 0x6c, 0x2f, 0x64, 0x65, 0x6e,
  0x73, 0x65, 0x2f, 0x42, 0x69, 0x61, 0x73, 0x41, 0x64, 0x64, 0x00, 0x00,
  0x02, 0x00, 0x00, 0x00, 0x01, 0x00, 0x00, 0x00, 0x04, 0x00, 0x00, 0x00,
  0x62, 0xfd, 0xff, 0xff, 0x00, 0x00, 0x00, 0x01, 0x14, 0x00, 0x00, 0x00,
  0x1c, 0x00, 0x00, 0x00, 0x1c, 0x00, 0x00, 0x00, 0x09, 0x00, 0x00, 0x00,
  0x34, 0x00, 0x00, 0x00, 0x02, 0x00, 0x00, 0x00, 0xff, 0xff, 0xff, 0xff,
  0x58, 0x02, 0x00, 0x00, 0x48, 0xfd, 0xff, 0xff, 0x1a, 0x00, 0x00, 0x00,
  0x73, 0x65, 0x71, 0x75, 0x65, 0x6e, 0x74, 0x69, 0x61, 0x6c, 0x2f, 0x66,
  0x6c, 0x61, 0x74, 0x74, 0x65, 0x6e, 0x2f, 0x52, 0x65, 0x73, 0x68, 0x61,
  0x70, 0x65, 0x00, 0x00, 0x02, 0x00, 0x00, 0x00, 0x01, 0x00, 0x00, 0x00,
  0x58, 0x02, 0x00, 0x00, 0x22, 0xfe, 0xff, 0xff, 0x00, 0x00, 0x00, 0x01,
  0x10, 0x00, 0x00, 0x00, 0x10, 0x00, 0x00, 0x00, 0x08, 0x00, 0x00, 0x00,
  0x28, 0x00, 0x00, 0x00, 0x90, 0xfd, 0xff, 0xff, 0x19, 0x00, 0x00, 0x00,
  0x73, 0x65, 0x71, 0x75, 0x65, 0x6e, 0x74, 0x69, 0x61, 0x6c, 0x2f, 0x64,
  0x65, 0x6e, 0x73, 0x65, 0x5f, 0x32, 0x2f, 0x4d, 0x61, 0x74, 0x4d, 0x75,
  0x6c, 0x00, 0x00, 0x00, 0x02, 0x00, 0x00, 0x00, 0x04, 0x00, 0x00, 0x00,
  0x04, 0x00, 0x00, 0x00, 0x6a, 0xfe, 0xff, 0xff, 0x00, 0x00, 0x00, 0x01,
  0x10, 0x00, 0x00, 0x00, 0x10, 0x00, 0x00, 0x00, 0x07, 0x00, 0x00, 0x00,
  0x28, 0x00, 0x00, 0x00, 0xd8, 0xfd, 0xff, 0xff, 0x19, 0x00, 0x00, 0x00,
  0x73, 0x65, 0x71, 0x75, 0x65, 0x6e, 0x74, 0x69, 0x61, 0x6c, 0x2f, 0x64,
  0x65, 0x6e, 0x73, 0x65, 0x5f, 0x31, 0x2f, 0x4d, 0x61, 0x74, 0x4d, 0x75,
  0x6c, 0x00, 0x00, 0x00, 0x02, 0x00, 0x00, 0x00, 0x04, 0x00, 0x00, 0x00,
  0x04, 0x00, 0x00, 0x00, 0xb2, 0xfe, 0xff, 0xff, 0x00, 0x00, 0x00, 0x01,
  0x10, 0x00, 0x00, 0x00, 0x10, 0x00, 0x00, 0x00, 0x06, 0x00, 0x00, 0x00,
  0x24, 0x00, 0x00, 0x00, 0x20, 0xfe, 0xff, 0xff, 0x17, 0x00, 0x00, 0x00,
  0x73, 0x65, 0x71, 0x75, 0x65, 0x6e, 0x74, 0x69, 0x61, 0x6c, 0x2f, 0x64,
  0x65, 0x6e, 0x73, 0x65, 0x2f, 0x4d, 0x61, 0x74, 0x4d, 0x75, 0x6c, 0x00,
  0x02, 0x00, 0x00, 0x00, 0x04, 0x00, 0x00, 0x00, 0x58, 0x02, 0x00, 0x00,
  0x00, 0x00, 0x16, 0x00, 0x1c, 0x00, 0x18, 0x00, 0x17, 0x00, 0x10, 0x00,
  0x0c, 0x00, 0x08, 0x00, 0x00, 0x00, 0x00, 0x00, 0x00, 0x00, 0x07, 0x00,
  0x16, 0x00, 0x00, 0x00, 0x00, 0x00, 0x00, 0x01, 0x14, 0x00, 0x00, 0x00,
  0x14, 0x00, 0x00, 0x00, 0x05, 0x00, 0x00, 0x00, 0x00, 0x00, 0x00, 0x02,
  0x28, 0x00, 0x00, 0x00, 0x80, 0xfe, 0xff, 0xff, 0x18, 0x00, 0x00, 0x00,
  0x73, 0x65, 0x71, 0x75, 0x65, 0x6e, 0x74, 0x69, 0x61, 0x6c, 0x2f, 0x66,
  0x6c, 0x61, 0x74, 0x74, 0x65, 0x6e, 0x2f, 0x43, 0x6f, 0x6e, 0x73, 0x74,
  0x00, 0x00, 0x00, 0x00, 0x01, 0x00, 0x00, 0x00, 0x02, 0x00, 0x00, 0x00,
  0x56, 0xff, 0xff, 0xff, 0x00, 0x00, 0x00, 0x01, 0x10, 0x00, 0x00, 0x00,
  0x10, 0x00, 0x00, 0x00, 0x04, 0x00, 0x00, 0x00, 0x38, 0x00, 0x00, 0x00,
  0xc4, 0xfe, 0xff, 0xff, 0x29, 0x00, 0x00, 0x00, 0x73, 0x65, 0x71, 0x75,
  0x65, 0x6e, 0x74, 0x69, 0x61, 0x6c, 0x2f, 0x64, 0x65, 0x6e, 0x73, 0x65,
  0x5f, 0x31, 0x2f, 0x42, 0x69, 0x61, 0x73, 0x41, 0x64, 0x64, 0x2f, 0x52,
  0x65, 0x61, 0x64, 0x56, 0x61, 0x72, 0x69, 0x61, 0x62, 0x6c, 0x65, 0x4f,
  0x70, 0x00, 0x00, 0x00, 0x01, 0x00, 0x00, 0x00, 0x04, 0x00, 0x00, 0x00,
  0xaa, 0xff, 0xff, 0xff, 0x00, 0x00, 0x00, 0x01, 0x10, 0x00, 0x00, 0x00,
  0x10, 0x00, 0x00, 0x00, 0x03, 0x00, 0x00, 0x00, 0x38, 0x00, 0x00, 0x00,
  0x18, 0xff, 0xff, 0xff, 0x29, 0x00, 0x00, 0x00, 0x73, 0x65, 0x71, 0x75,
  0x65, 0x6e, 0x74, 0x69, 0x61, 0x6c, 0x2f, 0x64, 0x65, 0x6e, 0x73, 0x65,
  0x5f, 0x32, 0x2f, 0x42, 0x69, 0x61, 0x73, 0x41, 0x64, 0x64, 0x2f, 0x52,
  0x65, 0x61, 0x64, 0x56, 0x61, 0x72, 0x69, 0x61, 0x62, 0x6c, 0x65, 0x4f,
  0x70, 0x00, 0x00, 0x00, 0x01, 0x00, 0x00, 0x00, 0x04, 0x00, 0x00, 0x00,
  0x00, 0x00, 0x16, 0x00, 0x18, 0x00, 0x14, 0x00, 0x00, 0x00, 0x10, 0x00,
  0x0c, 0x00, 0x08, 0x00, 0x00, 0x00, 0x00, 0x00, 0x00, 0x00, 0x07, 0x00,
  0x16, 0x00, 0x00, 0x00, 0x00, 0x00, 0x00, 0x01, 0x10, 0x00, 0x00, 0x00,
  0x10, 0x00, 0x00, 0x00, 0x02, 0x00, 0x00, 0x00, 0x34, 0x00, 0x00, 0x00,
  0x84, 0xff, 0xff, 0xff, 0x27, 0x00, 0x00, 0x00, 0x73, 0x65, 0x71, 0x75,
  0x65, 0x6e, 0x74, 0x69, 0x61, 0x6c, 0x2f, 0x64, 0x65, 0x6e, 0x73, 0x65,
  0x2f, 0x42, 0x69, 0x61, 0x73, 0x41, 0x64, 0x64, 0x2f, 0x52, 0x65, 0x61,
  0x64, 0x56, 0x61, 0x72, 0x69, 0x61, 0x62, 0x6c, 0x65, 0x4f, 0x70, 0x00,
  0x01, 0x00, 0x00, 0x00, 0x04, 0x00, 0x00, 0x00, 0x00, 0x00, 0x16, 0x00,
  0x1c, 0x00, 0x18, 0x00, 0x00, 0x00, 0x14, 0x00, 0x10, 0x00, 0x0c, 0x00,
  0x00, 0x00, 0x00, 0x00, 0x08, 0x00, 0x07, 0x00, 0x16, 0x00, 0x00, 0x00,
  0x00, 0x00, 0x00, 0x01, 0x14, 0x00, 0x00, 0x00, 0x24, 0x00, 0x00, 0x00,
  0x24, 0x00, 0x00, 0x00, 0x01, 0x00, 0x00, 0x00, 0x40, 0x00, 0x00, 0x00,
  0x03, 0x00, 0x00, 0x00, 0xff, 0xff, 0xff, 0xff, 0x64, 0x00, 0x00, 0x00,
  0x06, 0x00, 0x00, 0x00, 0x04, 0x00, 0x04, 0x00, 0x04, 0x00, 0x00, 0x00,
  0x1f, 0x00, 0x00, 0x00, 0x73, 0x65, 0x72, 0x76, 0x69, 0x6e, 0x67, 0x5f,
  0x64, 0x65, 0x66, 0x61, 0x75, 0x6c, 0x74, 0x5f, 0x66, 0x6c, 0x61, 0x74,
  0x74, 0x65, 0x6e, 0x5f, 0x69, 0x6e, 0x70, 0x75, 0x74, 0x3a, 0x30, 0x00,
  0x03, 0x00, 0x00, 0x00, 0x01, 0x00, 0x00, 0x00, 0x64, 0x00, 0x00, 0x00,
  0x06, 0x00, 0x00, 0x00, 0x03, 0x00, 0x00, 0x00, 0x30, 0x00, 0x00, 0x00,
  0x14, 0x00, 0x00, 0x00, 0x04, 0x00, 0x00, 0x00, 0xe8, 0xff, 0xff, 0xff,
  0x19, 0x00, 0x00, 0x00, 0x00, 0x00, 0x00, 0x19, 0xf4, 0xff, 0xff, 0xff,
  0x09, 0x00, 0x00, 0x00, 0x00, 0x00, 0x00, 0x09, 0x0c, 0x00, 0x0c, 0x00,
  0x0b, 0x00, 0x00, 0x00, 0x00, 0x00, 0x04, 0x00, 0x0c, 0x00, 0x00, 0x00,
  0x16, 0x00, 0x00, 0x00, 0x00, 0x00, 0x00, 0x16
};
unsigned int ki_modell_tflite_len = 12164;
